memory_initialization_radix=10;
memory_initialization_vector=
64721,65321,61239,64229,64484,61953,62258,63177,64302,160,64810,64339,62743,4381,867,62439,63731,3458,64023,2051,1724,1743,3281,2953,1789,61101
1428,56458,61600,54873,1965,55073,62865,58249,611,64509,57678,4047,61275,63362,65278,4501,63759,60343,60516,2318,60567,2136,61530,1821,3713,2834
644,2962,3050,61197,63212,3184,2443,597,64811,61377,2912,1458,64393,62216,65333,995,935,2494,62212,62895,77,2802,63168,60523,2738,196
59600,63818,2715,601,63335,2457,61557,61153,64003,62890,5717,3211,621,62475,63126,63199,5286,64670,62847,64789,376,2050,5904,2233,64753,1415
4204,62608,2022,1820,131,4071,61945,61735,1696,3222,65287,903,953,4139,3742,60344,62924,61113,63031,64959,64445,65070,61977,61153,1383,64270
61455,63838,64394,1098,65314,3498,63860,61206,62496,1574,4645,6623,1094,748,64820,3020,63982,60381,63540,1037,64078,63502,64791,4010,65197,63655
325,64458,64191,1666,64249,59012,448,61204,65023,62866,59666,61688,56815,62077,61129,2366,55954,59533,65226,63946,1068,60331,56857,441,64023,0
55112,60293,2220,64942,1541,60297,65205,64718,1877,64917,842,61510,63133,59770,2014,63948,4903,2318,65043,307,64105,500,64337,5789,65416,0
63350,62762,62428,61016,61688,62106,57074,61219,60463,65434,63764,965,61244,64553,178,64568,63239,61974,64453,2626,220,1201,680,1081,2395,0
179,65344,61298,332,63860,60284,59717,3315,65299,1499,62515,60258,57864,1343,5171,1343,56574,64117,65423,62478,61220,61001,4377,63287,3412,0
901,1152,65444,60929,1359,64178,62434,62606,63599,63052,1284,1249,62794,2153,58229,2815,61031,63288,5540,64191,63630,61564,144,5607,60191,0
1972,64649,62012,1074,65012,2597,410,214,57794,59061,1384,65022,62573,59269,2291,2193,64369,60574,64090,2856,64402,62028,64227,62117,65430,0
63749,2954,58171,59975,58271,3641,63520,4673,218,59247,9845,4551,4898,2218,64485,184,61138,60849,65132,65381,60054,765,3316,65297,1779,0
1721,65247,61263,1508,6230,57319,4875,2931,2268,1612,64203,60927,1505,60281,134,64914,60064,60414,60690,544,7268,60659,3598,5400,63562,0
60536,65084,63792,3636,3522,59160,64745,1157,58834,9239,60923,63568,2950,63671,63777,59664,391,3242,6703,6438,3112,1234,5799,65502,4270,0
1404,3682,64674,64164,6588,59479,1339,60398,3339,65056,61572,65371,60700,3015,614,709,61238,58071,63929,205,63818,62974,61024,2227,59676,0
627,1114,63169,64426,61552,60742,564,65004,1374,62602,632,62644,60611,61087,62012,64710,61819,7574,9122,1820,150,5573,5759,542,61516,0
62915,60219,2639,1370,358,64173,1503,63802,64835,65167,60108,1843,3727,2485,64866,64449,65353,2981,59651,62726,61961,6733,401,59420,63864,0
1808,3848,4860,146,60097,60434,2803,6177,62889,64518,64396,65091,4938,1797,62546,61364,63416,65221,1692,64140,361,58081,1994,501,63369,0
64813,3757,64460,3318,3891,61726,64213,62605,59507,61006,65174,61717,62720,63588,65196,61721,3365,58538,3159,64185,62788,63845,1649,62000,3047,0
1282,2163,64774,64964,1132,61385,63694,4619,2411,64896,4317,63349,36,64596,1295,60342,59668,63582,59264,3862,762,62013,61815,827,1297,0
3398,1701,60217,865,60328,999,3843,62602,65096,60897,6460,1842,1118,4813,61075,4646,1356,521,2606,58984,61141,1419,3913,64279,61533,0
1511,65236,375,61000,873,63298,63560,65435,62350,64368,62518,63485,3319,61968,62895,2030,55976,63545,60322,1848,63609,2884,3886,1867,63058,0
2138,65034,3470,63965,1837,63184,977,1916,62632,58209,63898,4977,3644,1865,62740,5501,1560,62581,1904,61713,5235,1647,61402,63807,65415,0
63067,61553,64033,60749,64016,3230,5122,63146,65292,60669,5148,2264,4653,1442,63580,62789,65356,63918,60928,61565,75,4874,557,2514,897,0
60942,59720,491,483,1088,65081,62340,3039,962,1501,61143,65533,3640,2882,63807,63791,4832,65193,182,64484,753,131,4544,64361,63440,0
2300,1592,5706,3080,1119,63317,64282,2733,60351,62941,2497,3809,1844,59931,64998,1081,63628,2428,65455,3608,62227,2371,583,3511,64132,0
59906,62354,62959,2139,716,64850,65430,61470,63793,1366,207,62393,64046,911,62985,597,62793,63517,5209,61800,2179,2058,59593,62253,60492,0
62633,63434,65358,2595,1758,64198,61688,1030,4389,6526,62132,64595,3445,64268,7391,63721,1861,5542,64635,64278,405,405,766,58214,60506,0
62891,60930,63574,63159,61682,63246,64692,354,63983,1391,62699,1743,60300,3695,6235,61723,59508,63888,784,7981,64235,64009,4625,4438,1079,0
1989,63015,63255,6148,63475,60860,61317,5526,64134,278,65372,64873,64093,64944,3676,4633,62945,64355,1823,784,4753,5611,58003,62660,454,0
63790,6366,4194,65339,2773,64618,64659,64382,852,63093,64066,3909,59827,65478,64266,60971,1352,64420,2897,2030,3225,62063,61823,61251,62266,0
56306,58746,63572,6451,4212,64123,64737,63322,64978,4315,1230,510,2813,1063,639,63271,64902,64715,61936,2100,64335,63045,1287,3304,972,0
59806,61467,64018,3043,81,5286,62773,59036,395,213,4092,64604,59361,1597,431,637,548,63893,63161,307,3846,60930,62095,5135,62591,0
60936,353,65239,64939,63956,2794,1153,5849,5532,65047,2256,4658,7721,2403,61945,55707,2887,4052,62190,60051,62452,449,65374,63304,60436,0
2373,62441,64829,64911,64295,59914,1152,62141,4314,3554,112,1854,61933,60424,65386,63388,63251,59906,64514,815,59504,62872,2811,56819,59106,0
2219,64938,676,65266,238,60222,64308,65136,1676,65185,329,57768,65415,4071,1075,62669,99,239,3368,2237,64528,61155,63763,1985,501,60233
4278,59496,65474,4013,245,1009,1608,63847,1742,65511,2289,60158,2367,5868,64458,2947,958,65079,687,62301,3064,64771,3871,63945,65384,61741
60179,64517,60708,64029,59997,3993,64576,3279,4253,340,64377,213,64317,60798,128,3928,63917,62125,1847,1268,64615,2722,5754,1613,63316,59886
63204,64451,64110,1512,813,60127,63466,2488,2973,1867,974,2316,5739,2664,65279,4026,1104,1530,64980,6,65316,62201,4505,62757,61068,58339
64273,64654,3818,64349,503,60404,62267,64966,4939,64049,4695,4576,62633,59161,59610,63863,61783,3698,2850,61355,65451,63902,4718,418,62218,59757
63174,3308,170,64575,64321,62444,63404,61680,901,1248,62156,413,64637,2116,1791,521,63554,1048,351,64844,64986,64921,3049,65478,65015,53673
65397,62887,61737,6001,62855,63575,61182,58151,63962,4566,608,58892,58639,64874,2151,64520,62768,53283,1382,64311,58730,80,281,7015,3643,0
1909,64350,63821,2565,1826,2814,65458,64888,1728,64003,2940,1325,2677,294,61017,1742,60617,128,63335,63014,183,58287,62493,60601,58185,0
64251,62222,321,62629,64547,5718,113,62962,848,65243,1111,61907,61444,62735,65374,64383,64196,1394,62871,646,4104,637,64246,912,4385,0
64386,882,63739,65174,63356,57226,683,65063,63893,2082,2762,62139,62961,63676,64695,6626,1733,62848,65158,5411,5501,423,61304,5650,1781,0
63529,64641,1057,1696,595,490,60454,282,59333,60890,1835,608,2808,65060,56213,62664,64286,3760,61630,58803,62626,2027,8679,60105,59589,0
56381,62957,6215,2325,3123,63869,4523,2301,60045,60279,65382,2128,761,1671,60442,63569,3068,64319,62641,58210,62857,63209,65475,65170,527,0
63581,62334,63173,1716,64221,61506,4599,63450,65244,4673,1167,1165,62219,64236,63873,4819,62885,62672,6459,65323,4125,112,64425,59161,834,0
1533,58840,59519,1100,3306,60613,2032,8108,5927,65391,2127,64361,63736,1134,62865,65389,2088,60955,60704,61850,63044,59220,63566,2169,63744,0
5703,2445,58976,61769,3221,4245,63544,63812,2480,6161,61596,65125,63174,3091,60344,63122,59115,4042,6000,64829,1928,69,7840,4285,655,0
63867,3586,60999,63015,59257,62847,62384,7419,554,62499,65338,3379,63105,59486,62767,7354,64052,65262,64359,61740,63628,60742,2800,766,60689,0
62953,5547,2588,9,5484,1379,7170,2784,64360,11674,55477,64736,3038,4900,3415,7284,1616,4434,65334,2038,62609,2713,2133,61479,61219,0
1869,60277,64746,7737,59714,61777,1027,63945,63021,61454,1238,2240,62626,65333,61906,2301,64888,62020,62049,2933,60588,8098,4211,2917,59712,0
60850,5099,2851,2801,2584,64591,64561,64668,60770,58794,62816,63041,65253,62936,3105,64692,61745,62517,5077,1294,64672,943,65340,63802,64710,0
64092,3572,63688,59726,61875,2351,63703,23,2113,65084,58593,61187,58590,63741,1211,58011,65033,64635,62637,64838,1578,664,62267,63089,62101,0
59843,61211,59296,62902,60875,1274,64606,62781,3222,298,58944,65360,63148,64809,61080,63826,1410,65174,63152,64803,63666,2070,60250,2645,2134,0
2395,64702,57465,195,3746,62321,62300,61916,1646,64502,4084,62344,60816,64990,1842,7243,64746,56352,2261,1236,4523,3383,60029,304,64158,0
64882,62825,64641,62606,198,2329,64968,43,60598,63696,1054,5353,419,58668,64359,1632,4574,3904,61513,58518,64682,1839,4425,60132,62748,0
62587,59672,4895,1456,60551,3096,2694,7159,61101,7609,2995,2009,4460,1502,1934,60068,60476,61803,61196,64642,64040,61889,57485,62754,61289,0
55279,65179,5687,5264,62064,61713,62122,4492,1963,5428,62029,63999,64313,2431,65491,63954,2125,59052,65474,61037,64646,64210,1272,63896,354,0
59814,64986,64628,1895,64388,58563,60234,65202,7579,3228,61905,386,3645,2692,3066,65356,3343,64206,4863,518,64835,5645,64481,58131,60848,0
62861,63723,64428,63956,60654,4526,462,64820,64307,63711,65507,1322,65424,704,59654,64162,3598,62295,2012,59664,64391,1449,64425,60665,61438,0
63046,61781,64845,2360,62323,4604,4648,5140,1567,63847,3991,2790,61591,59375,2263,65029,8364,987,65397,55319,60414,62512,1317,56914,63906,0
65509,65335,62672,1694,3018,63428,4111,63954,4543,6100,65488,64889,1181,63629,2609,782,63837,63967,7294,1135,60205,849,62857,64631,8110,0
59797,64401,842,56846,3993,63406,62797,5766,952,5563,57842,2673,592,2029,664,63245,1564,1331,62034,2600,2271,60637,62743,64409,2436,0
3942,62357,289,3067,1261,2428,2132,3144,59845,64317,4753,2033,63209,59793,64666,1678,62096,189,4634,63399,843,3204,439,62361,3067,0
522,1741,7181,457,61115,5152,64761,3280,3694,331,63032,2513,59730,62083,61598,1203,1948,700,2368,58699,4555,65506,64015,484,1836,0
4043,2226,64247,1433,62166,60315,64403,64325,64226,63152,61972,65453,1188,488,63993,428,5264,986,62578,560,64654,813,64100,59330,65155,0
1587,4448,64448,62957,65068,65254,64015,63937,59030,65236,61688,63884,64363,59634,1881,1543,587,59806,62906,64496,63420,6457,60650,64382,1976,0
65198,2991,679,1804,3779,60802,304,64083,64372,61552,58717,970,62326,64341,63635,398,62057,62320,62953,64414,491,61394,1652,55883,2061,0
65455,62963,59408,57603,57976,2169,2541,476,1494,56681,65220,63159,65310,59898,60262,3344,1663,2336,62258,63174,65074,65298,1974,248,499,0
65090,64285,1735,64522,1546,755,58042,13,958,64386,5817,58720,193,445,61164,1450,2019,60149,2957,3025,495,62179,62939,65045,64557,60006
2474,63310,59333,61386,62470,2696,60218,62954,1713,3441,60998,64330,4512,4571,6206,64308,65105,3804,62737,1232,61740,59239,46,65270,64457,658
3469,4957,65088,64640,1922,301,3154,2078,62126,59203,2205,5318,1963,64484,62790,1760,1296,64120,64798,2894,62863,1671,4305,1955,1446,60492
301,64418,181,61106,62813,62357,2500,65469,110,61465,61302,61310,63059,62429,5403,64804,3188,2754,62659,62423,60568,6148,61429,3286,459,61766
65140,63735,560,57515,65003,1610,2592,64794,56627,63369,5339,3995,5214,54148,62196,65513,2043,9015,64410,64549,63458,4278,2646,61240,63635,61600
4024,61225,63528,845,61961,63035,2025,1725,63812,1725,2217,2281,4959,1681,745,2160,62744,61525,4276,64500,64949,60492,61623,65180,62277,64704
62161,2261,2511,2390,3894,58388,57614,2960,5711,2436,306,61499,58021,65515,58758,3462,62518,55926,3024,2571,65394,61947,62602,64401,767,0
325,64458,64191,1666,64249,59012,448,61204,65023,62866,59666,61688,56815,62077,61129,2366,55954,59533,65226,63946,1068,60331,56857,441,64023,0
1796,3076,1050,1909,60983,3442,64274,1177,3670,3087,2639,65331,63227,59118,687,61406,6547,2284,65120,5442,2913,3008,2824,204,61883,0
65064,65262,59608,239,63443,63899,1817,3429,64216,61249,63593,3068,65071,61920,1198,62869,1344,3206,2283,63984,62252,2804,1388,3302,5016,0
654,2862,5052,1027,63264,61055,65115,65162,1054,2812,63450,65520,14631,7554,58191,1342,2913,63990,3816,60935,58365,61535,58150,57967,65137,0
63749,2954,58171,59975,58271,3641,63520,4673,218,59247,9845,4551,4898,2218,64485,184,61138,60849,65132,65381,60054,765,3316,65297,1779,0
9238,62045,1192,6416,63147,452,62263,60433,62925,61470,63309,244,61337,64590,4100,63207,64540,60103,6990,905,59930,60752,64702,3642,6241,0
63569,63505,62099,2024,3251,3395,63952,64027,2379,299,2218,9169,1680,1891,61830,3302,62593,64938,65181,64925,7169,60499,1590,63012,9135,0
3317,63182,64085,770,49731,311,79,1650,60501,58311,6613,65247,62949,473,4348,539,63503,57358,61465,4447,1070,61730,908,63750,63520,0
1808,3848,4860,146,60097,60434,2803,6177,62889,64518,64396,65091,4938,1797,62546,61364,63416,65221,1692,64140,361,58081,1994,501,63369,0
1219,65308,63785,64322,579,62219,61697,63118,1518,4650,59662,59417,63262,1742,739,59500,59701,58338,1334,2887,62987,60380,61948,63965,1859,0
64985,61063,6660,60962,60555,62538,63988,5555,3766,3138,58407,139,366,57946,2674,63351,65107,467,841,1180,59915,60582,64022,61266,62281,0
65349,63230,59555,4310,64517,64241,62440,60678,59084,52620,64093,686,63829,54773,58614,60446,357,4455,1301,49142,64452,2246,9649,62177,61600,0
63067,61553,64033,60749,64016,3230,5122,63146,65292,60669,5148,2264,4653,1442,63580,62789,65356,63918,60928,61565,75,4874,557,2514,897,0
64768,63581,64480,65151,1293,65236,1193,779,62706,1170,64641,63392,61360,63695,2575,61187,61577,58261,716,60406,1431,65184,61440,5547,4130,0
63919,759,130,60123,62203,64895,17,61915,64982,1160,6029,690,64364,63115,1160,60,64493,2026,2069,3361,5636,3347,61064,943,63814,0
3620,58683,2044,6133,64936,57691,2373,5415,63283,59932,58735,62206,8919,577,57883,59114,64997,2481,1353,65158,1467,59779,64880,3399,63872,0
1989,63015,63255,6148,63475,60860,61317,5526,64134,278,65372,64873,64093,64944,3676,4633,62945,64355,1823,784,4753,5611,58003,62660,454,0
232,64511,63874,658,61762,60845,58745,619,65340,3826,1411,65198,63891,2407,64940,63154,62565,65137,62625,694,64154,62839,771,3664,2509,0
3073,5813,60597,2584,61737,59582,58761,64491,1868,59914,1319,62555,778,2522,64697,3301,1216,4961,4005,64379,57766,1113,61144,60,63428,0
60201,176,63504,1099,182,59767,63261,59865,65198,65116,5900,1735,63735,52170,63515,2644,601,8097,3355,64670,56689,3091,9542,64555,63374,57043
2219,64938,676,65266,238,60222,64308,65136,1676,65185,329,57768,65415,4071,1075,62669,99,239,3368,2237,64528,61155,63763,1985,501,62035
2438,1172,62005,64379,63059,65063,1082,1788,4700,501,64263,938,4230,137,64736,59078,638,3041,62653,2019,1481,65346,64581,64651,64074,1616
61662,338,65412,65320,64096,60228,62467,2874,64533,62538,63326,60341,64237,65197,4445,3668,1176,60670,3618,643,65470,61968,64053,59203,5138,60416
64324,65408,64991,64660,64114,63016,64842,2881,63642,583,3137,63133,64523,64449,890,1139,63080,64214,64698,63867,64399,65459,63424,64440,64974,0
65535,0,0,0,0,65531,0,0,65532,0,65487,0,0,0,0,65474,0,0,0,0,65516,0,0,0,0,0
63508,64237,59633,61553,2473,63031,63108,65152,64378,64006,83,37,155,4264,63782,60758,656,728,3261,64992,2800,3285,1233,65007,587,0
64754,65431,65281,64819,3,64629,65434,65535,65008,65057,64520,65535,0,65518,65534,64580,65532,8,65532,65535,65014,65021,0,65529,65209,0
65067,65376,286,65327,2,163,65360,65315,75,65079,65341,127,107,65465,65335,65085,65526,15,84,101,50,65436,65510,65482,65454,0
356,1958,64346,2548,65330,65047,64062,65411,1236,64424,65120,63436,64411,160,65122,63175,1322,63771,74,62924,64306,1473,65056,735,112,0
64864,964,65449,64187,1480,1154,65337,917,65157,3182,63079,65448,2140,2140,64999,1319,64603,779,2399,63025,64783,64916,1792,64172,63725,0
0,0,0,0,0,0,0,0,0,0,0,0,0,0,0,0,65535,65535,0,0,65534,65535,0,0,0,0
1522,62967,64821,993,1911,64499,64441,1550,1533,63479,744,574,1129,3343,936,65194,807,63058,38,1114,1078,1179,2510,1057,65293,0
65389,65499,65533,65525,65411,65485,65535,0,65323,65466,65523,65533,65522,1,65503,65535,65390,65306,65504,65496,65123,65179,65201,21,14,0
712,433,65128,592,64803,50,65354,506,884,65378,597,64627,64735,387,742,670,64914,64977,1297,65329,247,64512,64560,65088,375,0
3146,220,63432,64103,64325,1971,1695,65257,65030,65329,2236,2263,1194,63638,65350,2482,64881,64761,62958,1469,61650,893,64458,2434,900,0
63979,285,475,64742,735,662,64154,2722,301,65172,64509,64393,65120,1811,64771,64855,65036,1616,64613,258,1477,172,1385,65477,64993,0
0,0,0,0,0,0,0,0,0,0,0,0,0,0,0,0,0,0,0,0,0,0,0,0,0,0
74,1120,761,1063,65492,63660,63684,312,430,64339,501,64095,63778,64318,841,62583,1211,2590,3900,404,65435,632,881,2461,65135,0
65311,65276,65092,65415,65427,65348,164,4,65510,65472,65483,51,65520,65456,65187,65499,65531,65066,65409,0,65508,0,3,0,0,0
152,65228,143,391,5,54,421,65080,65414,518,64693,65441,34,65385,65344,65106,65433,335,65255,65502,543,65181,65281,217,37,0
64638,610,64216,64356,1746,1126,67,65026,64187,844,64413,1959,62994,615,64788,2029,910,64124,987,73,63663,221,264,414,64360,0
63269,197,69,1625,64937,63679,66,958,65385,64597,1428,64162,2479,63553,1165,1398,1596,208,63903,64895,65475,520,775,466,65531,0
65534,0,0,0,65535,65526,65533,0,65534,65534,65521,65533,0,65533,0,0,65535,0,0,0,0,0,0,0,0,0
63424,1968,2049,63817,183,65248,378,3081,62787,61944,678,1175,2552,64854,64302,82,64289,65260,2465,63559,2509,63687,1830,2282,65152,0
64542,64634,65169,64907,64691,64507,64908,65318,64552,64098,64653,64812,65225,64806,64926,64674,65085,2,65499,65346,64975,65402,0,65461,65357,0
65349,65478,65509,29,146,65235,65365,35,65515,13,65285,65437,65434,65478,65488,65364,65409,16,1,65532,65520,65499,65523,65517,65528,0
314,1301,3155,1387,64303,63213,2180,64990,64873,895,64933,498,64619,63211,1230,564,1539,63711,63536,754,1062,51,417,64659,65340,0
64120,63133,295,65372,626,267,64160,1712,64995,64447,1397,64596,1133,63480,63815,607,65514,780,63455,62441,27,278,375,64619,64301,0
0,0,0,65534,65532,0,0,65527,0,65510,65535,0,65535,0,65528,65535,65533,0,0,0,0,0,0,0,0,0
152,65149,62997,1867,6061,63069,64396,63428,42,2200,63880,64036,64165,1078,63121,62965,64342,1824,64284,64657,319,65492,1436,784,63606,0
65283,65527,65285,64596,64489,65360,65533,64785,9,65370,1,4,0,65488,64997,65496,65074,64808,65471,64971,65222,0,65531,0,0,0
0,0,65398,10,23,0,5,65458,65508,65294,65532,65519,65533,13,65516,65499,65532,65532,65516,65391,65523,65515,5,65527,65534,0
65210,65102,1531,527,64811,65298,104,120,337,63806,71,978,65471,65334,400,65094,540,345,64980,728,64865,368,120,435,690,0
64048,63726,249,0,884,64778,2,144,64919,64882,729,62710,64451,1148,424,2219,1477,65288,63255,65346,1465,1509,361,64455,817,0
0,65535,0,0,0,0,0,0,0,0,65532,65535,0,0,0,65490,0,0,0,0,65528,0,0,0,0,0
65184,235,4511,33,63547,62218,60945,1722,841,6,62353,64928,528,3677,1517,64337,63571,1501,1492,415,454,3379,65335,886,64581,0
65262,65147,65507,65486,65218,64806,64701,65200,65505,65396,64834,65213,64991,0,65511,64033,65442,65138,65129,0,65017,0,65406,65338,0,0
65530,65481,3,1,0,1,65523,65529,65525,0,65465,8,65524,65534,0,65497,65482,7,65482,0,10,1,65535,65535,0,0
65200,65515,197,64630,65363,65275,64397,309,64784,65344,65020,423,65441,64950,540,64641,65511,65495,279,248,64266,65330,486,145,65335,0
742,1844,1568,63898,64266,64359,65068,64159,64943,65429,65513,175,634,882,63310,65136,65366,225,65044,64827,1065,64617,379,417,65349,0
0,0,0,65535,0,0,0,65523,65522,0,0,0,65535,65531,0,0,0,0,0,0,65510,65533,0,0,0,0
25,795,63794,63761,1095,1177,63002,64471,186,687,64764,65129,63633,63319,65197,62947,152,119,2674,64277,64797,1613,2873,64460,63086,0
64759,65075,65414,65262,65482,65009,11,65527,64729,64640,65097,0,65523,65531,65511,64119,0,0,65490,0,64513,65262,65428,64880,65035,0
65405,65534,65488,65490,65243,65449,65456,65474,192,159,1,65525,65411,65452,65469,65412,65461,15,65512,65526,65456,65450,12,65530,65532,0
63557,65267,765,146,64988,297,65474,64675,64920,64426,64203,64568,65458,65499,65448,235,1220,274,65305,334,63483,64794,309,302,65383,0
24,280,64746,302,223,499,64911,2529,2824,65396,65486,590,65056,814,1507,1610,65466,63223,63119,352,64318,264,65316,65390,758,0
0,0,0,0,0,0,0,65535,0,0,0,0,0,0,65526,0,0,0,65528,65529,65535,65535,0,0,0,0
64951,65398,985,2044,224,57,2803,4670,2701,288,498,2160,427,64481,63186,457,1154,65044,64971,65436,738,463,716,63451,103,0
0,0,0,65526,16,0,0,64799,65229,65534,0,0,0,1,65308,65502,6,64485,64514,64746,64851,65358,64682,65515,65197,0
0,0,65529,65529,4,0,65535,65408,65501,65522,0,65533,65515,65447,65456,65524,65533,65463,65450,65506,65513,65490,65516,65432,65501,0
11,65243,35,454,236,81,65403,64837,100,225,510,322,64880,64674,857,64883,65338,169,65078,64993,65244,387,64860,65354,350,0
65183,481,448,65247,64815,15,64825,64990,64885,117,882,65081,669,1802,63096,65334,482,65305,65047,65208,65010,504,431,674,1566,0
0,0,0,0,0,0,0,0,0,65535,0,0,0,0,0,0,0,0,0,0,0,0,0,0,0,0
62955,65083,62502,65289,327,1561,64942,64947,2297,63123,1700,64897,1909,928,1165,757,65017,249,65365,2168,77,458,64970,64617,64108,0
65250,65406,65528,65297,65222,65430,0,0,65535,65526,65533,0,0,65470,65520,0,0,0,0,65531,0,0,0,0,65469,0
229,65053,65290,148,504,324,16,65007,65075,65118,65413,65475,13,88,65534,36,65533,73,65530,76,65507,31,65212,65409,102,0
714,250,64974,64354,66,365,64966,63160,743,64414,63315,670,65027,65200,64808,64201,64554,65100,65527,1251,64720,65512,64784,63554,1735,0
65047,154,63461,823,335,2109,1161,64363,62703,1098,65176,63374,63821,64386,1369,64676,2718,830,870,138,65219,1684,64431,63976,64967,0
0,0,0,0,0,0,65535,0,0,65535,0,65532,0,0,0,0,0,65535,0,0,0,0,0,0,0,0
137,64631,62188,65204,1674,64193,64526,62241,1511,1123,1542,62289,65117,1921,1750,63569,61674,65218,281,787,1143,266,1918,392,64483,0
65526,65535,64874,65301,65447,65420,65534,65535,64954,65530,65512,65531,65199,65211,35,65497,0,0,65321,0,0,0,0,0,0,0
2,8,6,65534,13,10,2,65502,65530,11,0,0,0,65532,65528,0,65533,0,65535,2,5,3,65535,0,0,0
65483,65364,65421,65333,1122,65012,65526,64288,476,992,310,64740,65041,125,79,816,63970,107,63887,202,359,64800,719,387,381,0
62788,62415,1083,64156,1894,63208,62117,62662,64899,63714,64634,873,65222,65425,1183,1235,1165,968,65199,65203,63755,578,63978,64306,63430,0
0,65531,0,0,0,0,65533,0,0,65511,65528,0,0,0,65522,0,0,0,0,0,0,0,0,0,0,0
64183,64102,63543,65338,63961,62663,62813,62491,171,64394,61392,64056,64982,1100,2062,847,64846,64672,3352,65396,3114,1477,64924,1194,84,0
64855,65405,65530,65359,64772,65153,65361,64579,65495,64694,7,65530,65028,64996,65489,65499,64780,65531,65352,65388,65527,64967,65186,65466,65333,0
0,0,0,65535,21,65535,65535,65506,3,0,65534,0,65517,0,65427,10,17,65435,16,65449,0,65535,65445,0,65530,0
65228,59,150,65320,558,64898,63421,1806,1564,2019,64174,64914,807,1373,810,65116,1222,65296,20,891,65219,65192,220,65208,65410,0
39,64932,64319,64492,942,135,65152,65052,65002,64025,558,1308,65294,880,63729,64190,64821,54,64858,1160,63470,64290,730,697,399,0
0,0,0,0,0,0,0,0,0,0,0,0,0,0,0,0,0,65533,65535,0,65529,0,0,0,0,0
37,119,432,1554,3711,175,915,150,65302,2023,1514,1426,65052,65375,567,1420,65024,64919,1244,987,59,65186,2571,2967,291,0
0,0,0,65502,65519,0,0,0,0,65518,0,0,0,0,65280,65473,65055,64726,0,65257,65324,64999,65451,65511,0,0
0,65520,22,65518,65530,0,3,54,65512,2,65498,1,65534,65534,65498,65526,65526,65492,2,65533,65342,65378,12,65512,3,0
65519,65272,65256,65121,65112,259,65181,65302,154,180,754,65091,64855,65413,478,1427,297,484,64929,64909,989,65118,301,780,407,0
64400,64205,64938,64955,63838,65271,62997,63999,63435,63821,2789,64906,1590,783,61406,645,113,586,64145,64724,44,362,12,63830,65307,0
0,0,0,65527,0,0,0,0,0,65534,0,65505,0,0,0,0,65491,0,0,0,0,0,0,0,0,0
64780,63617,63712,257,3091,1199,62421,64224,444,30,64464,1859,1014,330,1721,1047,2078,435,63759,2380,2051,755,65161,64945,545,0
0,0,64995,65208,64617,65523,65515,64333,65421,380,65521,64308,65039,0,65509,65393,0,65169,7,65238,65206,65270,0,52,0,0
1,3,65386,16,12,1,65533,65534,21,65473,4,6,0,1,4,0,3,0,2,65508,65535,0,0,0,0,0
65223,65293,678,64756,65415,64458,117,330,64897,64547,65114,65274,64824,65063,64946,65211,64832,917,643,65422,235,391,64853,65166,246,0
63089,64316,63529,63638,63728,64577,65116,225,63385,2819,65382,65444,1498,65068,65512,64734,507,1382,65350,103,29,65407,531,65432,64696,0
0,0,0,0,65535,0,0,65535,0,0,0,0,0,0,0,0,0,0,0,0,0,0,0,0,0,0
65145,65262,61715,62801,781,63671,448,64634,64641,918,3912,1621,2033,64427,65456,3339,246,940,1325,163,63810,63519,63469,64928,64366,0
64963,65037,64970,64676,65442,64861,65315,65489,0,48,65003,65077,65529,65074,65481,65513,0,65295,65134,0,0,65433,65331,65309,65355,0
126,65291,65515,5,313,65396,65480,65463,65507,243,65244,65507,65512,66,360,53,65479,65141,74,65047,60,131,33,65367,65316,0
471,64486,49,64293,63435,62141,1808,104,64999,65182,259,65464,2274,877,65005,1317,1250,65480,2004,710,2173,921,65417,764,65441,0
65333,298,1455,985,624,64241,64884,391,575,64223,62710,65332,1807,1218,65109,201,64798,64319,463,1661,159,63038,340,64732,64833,0
0,0,0,0,0,0,0,0,0,0,0,0,0,0,0,0,0,0,65526,65527,0,0,65529,65525,65535,0
63500,63606,63376,728,65268,380,1100,720,65037,477,1303,64745,65188,65272,63411,558,3026,62341,64484,65124,2127,65238,64922,62444,829,0
65105,65250,65303,65532,0,64951,65456,0,65535,0,64742,6,65283,82,65443,65163,65520,65366,64973,64461,65207,65161,64487,64326,64635,0
65415,65488,159,65387,65043,2,65527,384,287,65381,0,11,65472,65492,203,65338,65499,436,65393,80,196,65138,140,512,64949,0
1637,1115,1498,164,570,386,64883,62995,221,2013,1324,1231,1702,676,64775,3754,64967,65383,65013,65516,80,63380,63649,64859,65232,0
65328,1069,3650,635,153,1330,761,65263,1760,64213,64845,746,83,64883,918,63551,65534,1055,63697,64834,64636,65191,1144,264,246,3194
0,0,0,0,0,0,0,0,65535,0,65535,0,0,0,0,65522,0,0,0,0,65535,0,0,0,0,519
614,930,69,65397,64870,4152,63219,62008,65163,65107,62168,64067,62018,63855,64151,65378,45,1048,65092,65248,64184,938,714,64540,64797,4981
0,0,65428,65484,60,0,0,24,65285,65528,65369,0,64531,64817,64729,64527,4,65035,64967,32,65320,0,10,65525,0,64910
65535,1,5,3,65532,65523,65525,65516,65518,65524,65436,65519,65373,0,65495,65468,65535,27,65535,71,8,2,9,65520,65527,1105
315,77,366,0,64996,1006,557,209,714,64881,643,65225,64385,64266,65329,65370,65236,65321,188,826,152,2003,52,64680,347,2399
0,0,0,0,0,0,0,0,0,0,0,0,0,0,0,65535,0,0,0,0,0,0,0,0,0,0
62807,63801,430,63909,64457,64861,463,63043,62800,61805,65222,310,259,62799,64648,60542,64930,64901,62581,241,64551,2557,64340,63371,65508,0
64868,65383,65500,63821,63341,265,63005,689,141,63273,62170,65428,7,63946,64787,64240,65005,613,64692,1326,64168,64099,64660,3139,899,0
2596,591,3268,3402,65083,1035,4086,1425,63032,62493,3577,5523,64031,65123,63182,201,2117,65005,61901,64272,4087,64353,64063,64408,54,0
65471,1,8,32,65508,65307,65530,65465,65441,65524,65254,65458,65490,65402,65522,65275,65519,16,65387,1,65469,13,65510,65514,0,0
0,0,65535,0,0,65533,0,0,65535,0,65526,0,0,0,0,65423,0,0,0,0,65533,0,0,0,0,0
0,0,0,0,0,0,0,0,0,0,0,0,0,0,0,0,0,0,0,0,0,0,0,0,0,0
60504,65451,591,64084,2777,2060,62795,2220,64222,1913,2444,71,1284,2133,62670,342,3985,1917,63773,227,65345,64855,64726,790,65041,0
688,64276,287,314,222,3692,558,65281,1199,62296,65359,64331,61994,62909,63752,64899,157,64202,64538,4325,1046,3320,2139,1669,64621,0
64604,2333,65032,64037,1311,64160,1523,65412,64898,65270,64267,3325,63060,62459,1574,65258,2159,65353,64111,192,163,63223,64447,65227,1788,0
0,0,65535,65526,65534,0,3,65499,0,65526,2,5,65525,65509,65524,0,65534,65487,0,65525,65518,65503,65533,65497,0,0
0,0,0,0,0,0,0,0,0,0,0,65535,0,0,0,65535,0,0,0,0,65535,0,0,0,0,0
0,0,0,0,0,0,0,0,0,0,0,0,0,0,0,0,0,0,0,0,0,0,0,0,0,0
326,3555,64587,512,1768,64030,64516,1247,60859,64177,1677,3112,64524,1395,1785,2216,132,64953,64157,863,1643,64854,63222,63851,2598,0
184,3148,228,65035,64663,64892,64907,64963,64715,65113,65461,2279,63325,62189,65203,438,194,3733,3015,767,65482,283,392,765,65137,0
103,62309,29,1522,1321,2930,214,63372,132,800,1558,1072,62789,588,1487,64865,1288,1717,65189,64296,4927,3027,65053,62921,64692,0
65517,17,65494,65513,0,3,5,65516,65530,0,5,65534,65511,65491,65531,65472,16,1,1,3,65535,65534,65525,0,0,0
0,0,0,0,0,0,0,65535,0,65535,65530,0,0,65533,0,65533,0,0,0,0,0,0,0,0,0,0
0,0,0,0,0,0,0,0,0,0,0,0,0,0,0,0,0,0,0,0,0,0,0,0,0,0
63700,62411,1167,63272,63438,1036,2309,65200,61023,64619,2619,61467,63711,61297,1110,1107,3509,924,476,64804,535,3287,65378,233,9,0
63760,581,1010,4193,60822,64878,63492,1659,2480,62509,1185,63732,288,62678,1661,64826,65501,63505,73,613,1257,1191,62644,64061,64928,0
1624,1183,64520,64528,1771,781,2221,64741,349,235,65534,1575,1279,3285,139,64849,64672,64765,65087,63341,62882,777,977,63429,65311,0
65503,65458,16,65534,65509,65435,65387,34,0,65523,65503,65529,28,65517,65519,16,24,16,65529,0,9,4,0,0,0,0
65535,0,0,65535,65534,65475,0,65535,0,0,65513,0,65527,0,0,0,65522,0,0,0,0,0,0,0,0,0
0,0,0,0,0,0,0,0,0,0,0,0,0,0,0,0,0,0,0,0,0,0,0,0,0,0
60799,1596,63389,63137,1568,63780,64351,64206,64475,932,63239,355,3087,710,2941,62019,743,455,1247,64995,947,65043,907,547,65083,0
65436,321,890,1345,1900,65532,64391,64137,64115,814,64128,1419,64365,64278,64114,24,1975,1755,64312,1502,4955,877,859,1433,2910,0
586,64516,62454,62244,62827,2232,64742,65122,62953,447,64616,64485,766,1453,485,540,2400,891,1625,1701,100,383,65452,64035,967,0
2,65531,1,3,65534,0,65532,25,65448,65507,65534,65530,0,65532,65394,65531,65518,65532,65464,65341,65525,65535,65523,6,65509,0
0,0,0,0,65535,0,0,0,0,0,0,0,0,65535,65504,0,0,0,0,0,0,0,0,0,0,0
0,0,0,0,0,0,0,0,0,0,0,0,0,0,0,0,0,0,0,0,0,0,0,0,0,0
4080,64697,1840,1152,63813,1016,195,64456,64925,443,1157,63094,64545,63342,110,2208,65251,63718,64775,64820,65342,64558,1492,64591,64776,0
3503,62764,3231,525,1389,2243,64842,733,61752,2272,65231,62850,1608,1371,195,2317,62872,63561,65498,765,3189,63323,131,1744,64280,0
65388,63938,63349,1402,2253,64145,1053,62205,1919,65470,2399,1442,64983,1058,156,3901,64518,64630,1032,1594,1593,2272,65359,717,2365,0
9,65361,65461,3,0,65529,65471,21,65533,3,65384,65481,16,0,0,65382,65377,65518,65519,0,14,15,65522,65532,0,0
0,0,0,0,0,0,0,0,0,0,65534,0,0,0,0,65486,0,0,0,0,65535,0,0,0,0,0
0,0,0,0,0,0,0,0,0,0,0,0,0,0,0,0,0,0,0,0,0,0,0,0,0,0
63664,64969,795,2899,1330,63870,65433,22,63835,1275,2524,65190,65019,61551,65017,64355,63230,61999,839,1426,498,185,63187,881,1583,0
306,747,1953,63040,65427,65110,2003,62885,60478,62472,587,63726,65367,416,64250,1931,623,413,1688,30,63028,61859,64111,1551,865,0
316,65340,1258,64716,65084,62472,63519,689,61820,200,62568,2516,3332,61735,63590,64595,2394,62798,65351,65081,63432,154,62185,64069,1110,0
65500,65528,65521,65524,3,3,1,65533,5,65510,1,0,65531,65524,65479,65474,65516,1,0,0,65429,65475,65480,65532,0,0
0,0,0,0,0,0,0,65522,65534,65535,0,0,65534,0,0,65528,0,0,0,0,65524,0,0,0,0,0
0,0,0,0,0,0,0,0,0,0,0,0,0,0,0,0,0,0,0,0,0,0,0,0,0,0
109,65319,64950,2222,1790,188,65175,63026,2971,4837,63860,61591,63011,3266,2247,63912,64223,900,868,61974,63648,485,1169,65011,65095,0
65187,64893,64817,63421,1278,911,1731,718,208,65222,326,2181,64686,65444,65221,621,63332,62293,1355,64661,4668,1252,63276,2391,2357,0
65365,64555,65083,65419,64981,64019,65040,65481,63845,515,2916,63350,794,65002,64578,49,64829,91,1210,2791,63910,65296,142,3993,65428,0
0,0,0,65533,0,0,65535,65460,2,6,65535,0,0,0,65501,65531,65496,65503,65523,65456,1,65508,65514,65486,28,0
0,0,0,0,0,0,0,0,0,0,0,0,0,0,0,0,0,65535,65522,65499,0,0,0,0,0,0
0,0,0,0,0,0,0,0,0,0,0,0,0,0,0,0,0,0,0,0,0,0,0,0,0,0
63832,63899,1712,62994,2156,2080,448,64481,64308,65417,65533,161,62085,2357,2479,2156,1150,63010,64455,2690,64028,64876,2093,1251,2942,0
200,63604,65128,64343,64762,64926,61855,2091,65460,1127,513,65200,989,64870,2563,65417,1117,1298,65037,392,64682,1734,64157,63779,149,0
64399,585,5866,1694,207,64662,62689,3413,284,63421,201,138,64338,365,65520,953,65381,133,65440,616,65513,64689,294,64406,64454,0
65529,0,65535,65533,65533,0,0,0,65402,65531,0,0,0,65535,65534,0,0,0,0,3,0,0,0,1,65515,0
0,0,0,0,0,0,0,0,0,0,0,0,0,0,0,0,0,0,0,0,0,0,0,0,0,0
0,0,0,0,0,0,0,0,0,0,0,0,0,0,0,0,0,0,0,0,0,0,0,0,0,0
62481,64818,522,62060,702,64693,108,1674,994,64565,63139,1,433,237,64703,65117,62108,64028,2634,860,64587,1742,303,65128,820,0
1432,202,65472,61946,64336,598,65136,594,62483,174,1116,65046,2311,775,65356,72,61546,62546,64246,584,64957,0,2818,1369,2599,0
305,64466,965,64732,64468,64387,64965,2863,64039,65429,270,3312,423,63802,592,3362,65138,521,64708,64589,1134,64901,930,1184,1583,0
0,7,2,65455,65502,65525,65532,0,65526,65444,0,65535,65516,65534,65463,65533,65521,5,6,65455,0,0,5,65522,65415,0
0,0,0,0,0,0,0,0,0,0,0,0,0,0,0,0,0,0,0,0,0,0,0,0,0,0
0,0,0,0,0,0,0,0,0,0,0,0,0,0,0,0,0,0,0,0,0,0,0,0,0,0
121,62956,1625,1103,62809,65284,291,2379,282,878,60253,63018,4566,1829,2419,60981,65004,4449,62316,65485,64761,987,1200,62745,132,0
64961,60463,1209,64140,2274,1149,65313,64178,157,3493,2057,64498,64121,64013,64738,692,1433,63895,64961,996,64340,64584,65386,1731,4785,0
1232,65449,1355,668,64105,2463,537,63132,62791,62035,3166,1795,60997,64362,63295,63834,63667,62831,2348,64647,64478,62274,697,929,62,0
4,65518,65507,48,65507,2,65523,16,65357,65469,65535,65370,0,65416,65465,0,65494,1,65426,65486,0,6,1,65535,65338,0
0,0,0,0,0,0,0,0,0,65533,0,0,0,0,0,0,0,0,0,0,0,0,0,0,0,0
0,0,0,0,0,0,0,0,0,0,0,0,0,0,0,0,0,0,0,0,0,0,0,0,0,0
65103,64602,376,436,64080,380,64561,635,1091,494,64621,64728,65328,458,65231,204,765,65240,2253,64082,1311,5819,820,63173,763,0
65343,1073,64234,161,529,248,2549,956,64980,1012,64249,65309,670,65001,1518,63782,64499,65137,2450,65205,62071,64478,2477,1382,65484,0
67,955,2336,62468,62255,65161,539,2275,524,1913,730,64577,413,464,64082,62729,63737,64539,65391,65246,64286,1148,525,65520,64994,0
0,0,65535,1,65530,0,65493,0,0,65520,1,3,65533,2,65495,65528,65526,0,12,5,65475,65518,5,1,2,0
0,0,0,0,0,0,0,0,0,0,0,0,0,0,0,0,0,0,0,0,0,0,0,0,0,0
0,0,0,0,0,0,0,0,0,0,0,0,0,0,0,0,0,0,0,0,0,0,0,0,0,0
64241,5387,1477,1084,1168,63673,1537,1607,338,64968,63566,63151,839,62911,497,64629,64330,2886,63122,3031,505,63696,1389,63866,64372,0
65099,65204,62088,63621,64845,65367,64956,1841,1358,2192,64695,1133,1188,2997,5092,389,727,64167,1404,2497,54,64666,973,357,695,0
64783,1435,62006,63497,65486,65186,1631,64228,65237,2168,575,5782,495,462,974,201,1226,551,2726,64809,64940,63874,65427,64718,1544,0
0,65532,65429,65435,0,0,65518,65483,3,65535,0,65493,65495,0,65531,0,65526,65510,65488,65488,0,0,0,65535,0,0
0,0,0,0,0,0,0,0,0,0,0,65532,0,0,0,0,0,0,0,0,0,0,0,0,0,0
0,0,0,0,0,0,0,0,0,0,0,0,0,0,0,0,0,0,0,0,0,0,0,0,0,0
63564,64305,3771,61461,421,653,3268,1855,384,4383,62118,63133,65088,1525,915,65475,65256,64583,62930,65467,65140,65460,64878,65050,2434,0
63332,1268,773,64057,115,3545,1085,64534,314,64740,316,65340,1125,64922,65100,1053,1298,1598,65484,65097,1751,63943,1374,64120,64539,0
68,1729,63237,650,3126,345,63844,65398,230,1786,63631,65440,688,64552,1032,63038,65131,687,64598,63449,63993,65369,2767,312,1183,0
65468,65472,65533,65502,1,65517,65532,0,3,1,1,2,65528,65534,65500,2,0,0,0,0,0,0,0,0,0,0
0,0,0,65535,0,65532,0,65530,0,0,0,0,0,0,0,0,0,0,0,0,0,0,0,0,0,0
0,0,0,0,0,0,0,0,0,0,0,0,0,0,0,0,0,0,0,0,0,0,0,0,0,0
665,322,62215,3556,1587,65529,64153,64894,657,1158,65305,64621,63031,63533,61824,62096,64492,62270,1010,62479,63714,63792,252,65517,655,0
63483,2973,1768,2257,64771,63865,1336,2773,65176,1054,63546,664,1319,1515,1832,62168,533,746,1039,1071,63695,62250,2210,62892,64156,0
1882,1337,932,63926,735,3108,1063,1238,718,1523,87,62805,1847,62675,65440,3234,64707,986,62730,0,1501,64288,2485,227,63837,0
65490,1,4,0,0,65420,7,2,4,0,65442,17,65507,65505,65533,65519,0,65520,10,35,22,65527,65512,65522,8,0
0,0,0,0,0,0,0,0,0,0,0,0,0,0,0,0,0,0,0,65532,0,0,65530,65528,65535,0
0,0,0,0,0,0,0,0,0,0,0,0,0,0,0,0,0,0,0,0,0,0,0,0,0,65530
476,65135,679,64737,64453,65199,64933,64560,2011,64926,65373,1065,63254,63641,65260,1274,114,63517,65246,3121,1771,65396,34,2151,1944,2602
676,65070,865,1119,61,382,1370,64051,62638,148,63384,1686,687,1956,62973,65166,813,379,62573,65368,65081,64856,65461,831,382,3591
64868,299,64322,64339,355,63437,1189,771,65478,63263,3782,64996,2911,65508,59679,1311,312,65106,188,65476,64422,4373,65011,63496,64379,1269
0,2,1,5,0,0,0,0,65530,1,65502,65528,26,65478,65535,65511,12,27,65428,7,65529,2,1,65535,1,64847
0,0,0,0,0,0,0,0,0,0,0,0,0,65531,0,65497,0,0,0,0,0,0,0,0,0,837
3000,688,64946,59390,59542,3012,63914,63674,174,60966,64388,901,63180,1963,61877,4182,65437,62886,2171,2115,308,64121,64907,524,63391,0
159,1156,2338,3429,62899,2318,531,1161,1817,64069,994,64529,2621,415,64927,110,2031,898,64896,64419,62779,64618,63742,1595,64106,0
0,0,65535,65526,0,65501,1,0,0,0,65300,8,65529,0,0,65252,1,65534,0,0,0,0,65535,0,0,0
65233,64680,270,425,65307,64578,64716,65446,254,65167,64670,65033,65042,64773,65242,64472,64979,100,65190,65337,64855,65006,65452,65515,65355,0
62543,808,2719,444,1007,64923,2603,65524,64877,1615,63138,2114,1868,941,953,1534,64483,506,59878,1298,64587,65507,2692,1643,267,0
3523,430,62929,61714,168,64709,63850,1168,65321,1518,61146,63365,63600,4054,3194,65152,753,63231,216,2599,330,64671,64027,168,1088,0
1791,65053,2001,64631,65061,3624,970,63925,682,1889,64584,65238,3149,2327,6046,1488,64597,65337,63238,64522,64586,2326,64123,63677,2321,0
2948,62847,323,63542,65117,882,64478,62322,257,62441,2719,63622,2424,61924,64059,829,3966,63623,221,587,1491,2319,1380,64846,53,0
0,0,0,0,0,0,0,65535,0,0,0,0,65517,0,0,0,65532,0,65524,65535,65484,65523,0,0,0,0
65410,65508,65310,65419,65445,65481,65412,108,65277,101,65529,65336,65096,65063,65406,65520,169,65202,65088,65389,65023,65348,65150,0,65384,0
64715,2203,65087,373,65272,921,64194,162,558,1041,64585,65471,64032,1250,61999,63805,288,218,1658,64496,1373,3087,2137,65258,63783,0
65307,322,86,1432,1025,392,64112,1810,63893,2265,2248,712,558,414,759,64061,4011,1635,1939,376,65135,65164,63974,1061,381,0
62501,62382,1420,1607,63707,432,765,64964,65209,4757,656,61532,2004,65125,64060,62918,784,63930,63086,1941,3239,2746,62823,63736,64984,0
2710,63333,3294,424,65333,3399,2427,64638,322,63697,3760,2924,63004,63297,63475,62186,1016,65227,1016,65224,629,1111,64288,65303,63899,0
0,0,0,0,0,0,65535,65531,65535,0,0,65534,65535,65534,65529,65534,0,0,0,0,0,0,0,0,0,0
65034,65376,65405,65406,75,65390,65311,65145,64893,65427,64975,47,65413,65142,65185,65213,65479,65134,65518,48,65230,65533,65528,65535,0,0
62925,2903,64982,64781,504,96,265,2020,62669,62189,1254,1456,2713,61839,64202,1947,3088,65032,62685,63593,167,1233,448,64577,64966,0
3431,1391,64240,3411,1364,3216,62255,62876,988,64182,64782,63198,1309,65229,64914,1052,64017,1969,3469,64910,1508,64744,1795,350,64182,0
3443,310,64536,63474,63604,63551,941,65152,65110,63569,3799,63605,63746,64679,371,715,1126,1996,3320,61696,64070,3065,62796,64503,1137,0
2818,1753,2183,64261,63593,717,2217,3005,2613,64716,62865,617,1911,1899,1141,64141,302,1069,5,65192,63804,957,938,66,874,0
0,65534,65535,0,0,65528,65531,65489,65530,65531,0,65532,0,65531,0,0,0,0,0,0,0,0,0,0,0,0
64871,64545,64758,65059,65265,64997,64525,64927,64923,65454,65354,64353,65101,65235,65125,65309,65426,65472,65020,65396,65176,65138,65489,65455,65493,0
64290,1993,65485,65063,63145,1855,64098,2319,2821,65079,563,1587,363,2596,63787,62755,2619,359,62868,572,62565,64996,524,63235,65458,0
64862,64315,65213,64138,2364,62951,2911,64049,2421,484,64860,1750,89,64923,2383,15,120,65373,62638,65276,1351,525,65338,65438,359,0
26,62782,63602,62918,618,64074,63563,62614,64629,4718,61911,64398,63782,64608,65432,255,636,63484,753,64654,1950,65212,440,391,64068,0
2882,2079,62295,61995,205,585,1638,63857,63912,849,64366,3766,63578,62093,59985,528,833,64497,63821,62869,1057,636,65054,855,577,0
0,0,65530,2,65428,0,0,65399,65511,65482,0,0,65535,0,65293,65535,65534,65519,0,2,65490,0,0,0,0,0
65460,65195,65213,65347,65156,65420,355,64384,65280,112,65519,143,65065,65289,64634,65475,64992,64938,65126,65213,65217,65516,64781,65404,65481,0
62813,65524,63163,4349,6348,61875,62842,62129,1816,65242,64494,64001,63610,63988,62991,62980,1574,65126,64737,64951,64706,406,871,2111,64276,0
64498,404,1181,510,161,55,63049,65032,549,2487,64862,65494,2166,984,1782,64449,394,3452,784,63173,705,65466,64477,602,197,0
1287,63513,65012,271,596,1272,1183,189,64318,64540,2772,569,3905,65525,691,64348,65186,64489,63061,63934,2272,64284,65338,64348,721,0
1580,62029,64660,641,64953,64720,62904,472,2496,140,65301,65367,64855,100,189,549,64192,1731,3732,1241,1211,63522,65456,995,867,0
0,0,0,65532,0,0,65514,10,65507,0,65510,65524,3,0,0,65139,65533,1,65534,0,65534,0,0,0,0,0
65531,65416,65202,65453,65408,643,64747,65092,481,65038,305,65532,64886,65424,11,64780,64562,64473,65502,65198,317,64912,111,65327,65487,0
64627,63326,3367,1563,62717,64019,98,815,64431,63114,1213,3683,458,64422,64442,64045,64813,250,1116,64338,3804,64128,63021,61994,64151,0
64019,2908,3103,65330,65110,64838,345,2230,62788,968,63117,64368,463,483,65060,4227,124,62184,493,63543,2191,64278,63228,64349,65033,0
300,2475,2944,1454,1535,2482,2153,3210,64479,496,2406,536,64793,64509,65327,64022,692,61185,2575,62070,3963,64318,612,2298,62262,0
64865,1119,65209,64966,64942,63719,667,61843,687,1262,65007,63757,64012,65515,774,1275,2302,1387,63998,1749,450,3300,64369,62894,1481,0
0,65533,65535,0,0,65533,65535,65535,65466,65483,0,0,0,0,0,65383,0,0,0,0,65296,65467,65521,0,0,0
65093,64475,64839,64616,65054,64480,65209,383,65320,65202,416,699,65389,64501,65457,64538,0,65402,65205,65418,64470,65289,65241,15,65413,0
64294,62483,1315,63473,63250,63918,63550,63478,60307,65255,63065,691,1385,65108,432,62668,4271,697,64600,65292,456,185,61935,65353,1488,0
64353,64218,65302,64672,215,1515,1492,2212,625,63440,1454,1827,65039,1555,2619,63474,64468,64303,782,1265,63623,65237,63328,1373,955,0
65077,65354,559,148,241,64467,524,534,868,838,1069,63902,65105,1662,1412,1485,63964,63285,782,63548,1750,94,65102,1306,61805,0
65511,65122,65052,63303,301,360,64907,62149,840,263,2125,65154,63849,64632,62125,678,61904,64556,64638,942,64954,63618,63891,1733,65300,0
0,0,0,0,0,0,0,0,0,65528,0,0,0,0,65531,65516,65500,65520,65424,65365,65507,0,65534,0,0,0
0,65524,65420,65498,65533,0,65533,65416,65230,64916,299,11,50,65012,150,0,172,64720,65078,65197,65352,65284,65277,65106,65465,0
65311,65498,63567,798,797,64919,65274,61303,786,63949,790,64970,64971,64614,63148,1246,63186,62414,1651,296,2806,64415,867,1230,63708,0
65480,65242,593,626,64381,553,1466,1861,544,88,587,2977,4238,2009,518,1081,2549,1014,63943,255,216,2787,63231,65071,64259,0
63425,1643,62096,63218,64142,1730,65244,935,62517,65348,63227,62835,62150,2289,64277,1598,2554,63412,497,2910,2353,3414,1879,64492,1141,0
515,62281,1250,65036,2063,64928,1199,510,64219,2857,65039,866,64761,485,2238,63716,123,65499,1819,64939,65293,420,63913,63923,62917,0
0,0,65532,65534,65531,0,0,0,0,65534,0,0,65534,0,0,0,0,0,0,65531,0,0,0,0,0,0
65124,65441,64518,65125,65165,65490,54,64997,65457,64853,0,0,65320,65508,65131,0,0,0,65517,65184,0,0,65525,65485,65249,0
442,63669,63359,64489,3355,1489,26,64296,134,65294,624,64938,63828,467,3017,493,62,65078,2275,710,207,688,1121,1506,64686,0
63703,64571,503,65499,65191,64529,455,64605,1,1573,1022,64432,2747,1174,1121,65176,1129,972,1813,64409,64865,235,747,64515,1250,0
2398,65483,64408,63621,63498,330,550,64101,65328,64742,64606,1604,578,62677,334,650,64992,63228,64938,3714,64950,65110,63815,2860,278,0
2860,2457,1518,64009,62937,65432,1527,65076,61208,63191,1322,4541,2307,135,11,439,65282,1180,1019,65056,160,64608,1549,65430,1971,0
0,0,0,65535,65535,0,65534,0,65519,65535,0,65533,0,0,0,0,65518,0,0,0,0,0,0,0,0,0
65362,65092,64982,64893,64972,65312,65378,580,64940,64705,65058,488,229,65054,65186,65491,612,64745,65004,65150,64918,65515,65479,65272,65403,0
1377,1802,63900,62674,34,65255,2175,890,64197,2562,1952,2482,63949,1482,1360,993,64931,65260,3405,1225,689,64773,65078,2438,1149,0
63385,2968,63857,1582,64591,63329,64668,65402,4485,1478,64131,62956,64744,65427,211,94,62549,1302,509,2342,64917,64228,1350,64022,63359,0
2374,1886,64673,63790,110,65304,65040,61273,63832,1769,64593,2244,1474,1138,65196,63980,592,4640,64852,339,69,63872,475,64815,63078,0
2369,521,65255,208,1354,279,64651,65195,64037,64902,63853,65423,48,65070,350,65390,63708,65125,3155,502,62369,62871,65445,2118,1993,0
0,0,0,65535,0,65533,7,65518,11,65341,65535,0,20,65518,65476,0,0,65534,65531,0,0,65532,0,0,0,0
65527,64921,64429,65367,65369,64313,80,64581,65425,65217,64392,65266,220,65503,53,65301,64387,64635,65261,64979,65496,64617,65232,0,65332,0
64322,63767,2562,64414,3573,63078,65004,64712,1394,3303,735,64444,2266,3235,62747,64270,60472,1664,1610,63302,61152,63964,147,1854,1569,0
62359,2259,107,63293,1466,64581,371,1351,2596,2869,1869,64828,1146,1359,64878,577,1415,63541,954,1346,65365,65171,64114,62872,64558,0
296,84,1327,64861,3608,65211,406,1714,992,65422,1220,63026,64864,724,64559,3042,1704,64992,349,206,4030,3046,1876,1494,677,0
65337,1110,65044,64562,64385,65206,196,62705,65332,65099,65312,2282,64194,65418,65067,64842,65375,65205,63575,1289,62114,64309,64246,65343,1619,0
0,0,0,0,0,0,0,0,0,0,0,0,65530,0,0,65439,65535,0,0,65535,65486,0,1,0,0,0
0,65533,87,65488,75,65530,65469,65492,64933,65483,32,65432,64714,65275,65476,64557,53,64286,64996,65234,64464,93,65409,65401,65431,0
65523,65436,64962,64771,65374,1328,465,999,1351,65147,1617,1921,65252,64392,337,64624,2217,63938,62863,63621,62208,64312,63615,61936,65280,0
65495,64556,65344,64742,65279,65193,1173,2772,83,31,64508,1309,1628,65388,1560,64228,64942,345,64937,1141,846,63652,65532,346,675,0
65472,1444,64096,65420,65001,69,62540,1927,474,65457,352,2840,2881,120,1329,65206,1200,65135,94,64366,1165,63013,65068,62179,64010,0
842,63881,61845,64158,64402,2933,65059,63606,291,3990,1254,1585,794,3565,3631,65522,113,64305,3899,600,64317,63489,64593,1919,174,0
0,0,65530,10,65420,0,65531,65444,65535,0,65487,65504,65534,0,0,4,0,0,0,0,0,0,0,0,0,0
65491,489,65349,65412,65141,65430,350,64773,62,65510,257,65190,64878,65372,149,1141,65451,65005,65514,0,65463,64919,64780,65521,0,0
64460,62051,64822,1808,4226,64817,1772,64309,1539,1519,146,64979,62022,2569,973,901,649,3207,160,1384,675,399,2090,65422,64274,0
65345,1269,1492,65148,971,64372,65112,63277,64726,65151,411,62472,61504,64150,63871,3094,1001,511,63684,545,545,65154,65327,64552,132,0
1495,306,383,3838,65353,100,64065,2050,1467,65274,2578,63565,922,428,65373,64111,65339,634,64299,65199,2863,2241,64492,63211,63841,0
2732,62928,64285,61965,65431,65430,1643,2242,64957,63544,1619,141,62353,61248,65355,61991,62016,62628,766,63438,65109,64009,64781,64449,65523,0
0,0,65525,65535,65533,65534,0,65436,0,65503,0,0,65523,0,65534,0,0,0,0,0,0,0,0,0,0,0
65496,65221,77,64883,64917,64460,65468,64664,17,190,65402,65511,65514,65043,65287,65097,0,65464,65466,65501,65014,65422,64803,65469,65512,0
1092,1061,901,64254,63773,65148,64549,65199,63366,65102,1085,63516,218,761,64109,62686,65171,2371,65402,64886,63987,65336,65446,64179,737,0
65495,125,2026,1152,62685,62973,1194,64077,669,1719,2455,64778,64946,1936,64001,164,1742,38,710,1536,1898,546,407,64865,64233,0
62550,1738,64379,65376,1907,89,60966,1571,62437,64291,62567,64681,1867,894,936,62143,62637,64241,63254,4302,65103,3447,63636,63299,64066,0
357,363,65519,2471,1499,1647,2105,65442,196,26,62376,1550,64438,64194,64672,64108,64743,2107,61712,65451,63277,63824,53,61730,1392,0
0,0,0,0,0,65512,0,0,0,0,0,0,65519,65470,65528,0,65528,65521,65462,65462,0,65532,65518,65508,65529,0
64692,65124,140,65374,65523,65140,65460,65493,64565,65423,64855,65378,65330,64763,64607,64887,65526,65527,89,66,64291,65269,64828,64639,64975,0
1217,2737,3197,1616,65268,524,75,130,64997,65459,63850,64309,63819,63959,63833,95,882,64148,64274,65353,62245,65014,1888,65193,63198,0
449,1641,64943,2545,64445,65413,546,63726,2957,913,3445,65498,1138,3618,64621,935,316,2121,2600,63837,65367,170,64025,63462,1012,0
277,0,2197,2387,1760,64304,62942,64794,65181,63654,64040,689,943,2478,61563,3222,63415,59661,2398,3732,64829,64294,64296,1831,1110,2606
65500,64660,62906,63831,64649,436,852,64494,62020,65062,2247,1194,362,471,61983,411,1528,2729,65296,65394,62799,1222,3320,64129,54,567
0,0,0,0,0,0,0,0,65530,65498,65522,0,65230,65515,65510,65467,5,65494,0,0,0,0,0,0,0,64267
0,0,65511,65534,65270,13,65500,66,184,65289,65003,65287,64571,65036,64681,64729,8,65303,65459,191,65054,65371,20,65535,65356,64033
64903,64232,64856,788,65139,64333,65294,64068,64771,64857,3030,2569,2644,64824,63498,1640,3604,812,64523,354,1035,63782,2849,63913,448,64877
388,65285,923,64197,538,64735,65145,1759,65414,3017,832,167,64980,758,3501,622,995,1529,508,65452,64760,64563,280,65249,448,5528
65510,65511,65533,65523,65510,65505,65516,65534,65526,1,65513,65529,5,65527,65533,65481,65528,65532,0,65534,65525,65534,3,3,0,0
0,0,0,0,0,65524,0,0,0,0,65445,0,0,0,0,65474,0,0,0,0,0,0,0,0,0,0
1498,65487,289,1261,913,3148,65419,2037,760,1192,458,64664,64766,64891,65213,954,417,767,64070,31,841,54,65327,64691,65184,0
45,64678,1397,3694,283,691,81,65505,62478,64840,615,65266,63166,64061,63648,64699,65323,62519,65513,62968,4748,3678,63832,64380,36,0
63404,1899,2334,62124,65243,63058,1882,3859,59231,60952,913,1287,4166,62077,64822,760,3114,772,1616,2624,1958,370,783,2083,3569,0
65529,65535,65532,0,0,65527,65535,65535,65534,65535,65529,65531,65532,0,0,65534,65533,0,65534,65533,65532,65535,0,0,0,0
33,106,65459,65453,43,65334,15,33,65500,65440,36,65423,65424,65502,45,48,65438,115,65399,40,65406,65370,65465,65499,1,0
0,0,0,0,0,0,0,0,0,0,0,0,0,0,0,0,0,0,0,0,0,0,0,0,0,0
1679,196,65014,64576,369,128,64716,64551,1465,63207,60,64293,64395,404,65456,63460,65061,63897,65387,64327,475,65031,65284,703,329,0
64201,1068,467,961,62649,62232,64860,2694,1641,214,64652,4127,2887,63479,60286,64552,1231,64520,64703,65362,2350,64578,64341,491,63027,0
65129,966,1991,64820,3634,1010,1507,2097,5571,4243,321,60668,64765,2808,920,626,64643,64574,64686,340,64350,3179,64411,63553,63485,0
65532,65532,65534,65534,65534,65528,65530,65528,65534,65533,65535,65534,65530,65523,65523,65532,65529,65528,65531,65529,65534,65533,65534,65532,65532,0
65524,65515,65534,65525,65531,65510,65507,65495,65501,65524,65492,65494,65530,65531,8,65506,65531,65528,65507,65532,65527,65531,0,65535,1,0
0,0,0,0,0,0,0,0,0,0,65512,0,0,0,0,65526,65535,0,0,0,0,0,0,0,0,0
63689,63978,287,64329,65292,65318,64167,65022,64291,64944,64340,543,1265,64279,64278,64910,608,63915,785,1590,65206,65055,65149,64423,64908,0
64421,64177,65287,3134,65338,1364,3570,2484,1454,1398,1590,1553,108,1025,63452,63002,64886,355,63340,288,1917,1276,63789,65339,609,0
64676,64527,494,64742,3270,64323,2616,63294,63864,1342,65309,64863,64325,60547,62350,345,446,65134,62224,62750,64374,1786,2011,65296,65365,0
0,65532,0,65535,65535,65531,65535,65530,65534,0,65533,0,65528,65522,65530,65530,0,0,65531,0,0,0,0,65535,2,0
65531,65522,65529,65498,65498,65519,0,65501,65533,65523,65527,65509,65499,65527,65535,65530,65517,65521,1,0,65528,65529,65527,0,0,0
0,0,0,0,65535,65533,0,0,0,65535,65534,0,0,0,0,0,0,0,0,0,0,0,0,0,0,0
63572,1061,65123,65061,64560,64939,927,1719,254,1423,63492,1571,64983,615,2401,64285,1147,64784,65088,535,579,65500,166,64931,65284,0
382,1375,581,65417,508,62142,31,2696,1268,44,2054,64888,65220,62187,4215,1122,1598,841,249,64457,1195,1081,1818,1010,643,0
2153,65448,65253,1866,62296,460,0,65324,2842,63802,64786,1246,2274,1146,513,1182,64941,4004,9,64933,62084,63967,1084,893,1468,0
65533,65532,65530,65535,0,65534,65535,65532,65534,65534,65530,65535,0,65535,0,65533,65534,0,0,0,0,0,0,65535,0,0
0,0,65530,65526,0,0,0,65515,65441,65524,0,0,0,1,6,0,0,65500,65531,65493,0,65535,0,0,0,0
0,0,0,0,0,0,0,0,0,65534,0,0,0,0,0,0,0,0,0,0,0,0,0,0,0,0
1005,464,63180,68,958,65531,80,1335,65058,337,65339,64951,65334,64469,64182,65361,65300,64113,63802,65068,64486,65089,64577,64392,777,0
63864,61028,64194,63813,568,62202,63400,1291,687,64218,374,2014,2250,141,63184,2263,3484,1675,64913,63480,64047,2155,63624,64286,658,0
1294,63600,63196,62736,2228,65360,64121,63816,11,4495,64287,63584,64828,65341,62901,1668,64905,64987,62949,1474,2880,65059,278,1525,63051,0
0,2,1,0,65526,1,65529,0,65535,65532,0,0,65527,65528,65521,0,65535,65530,65533,65516,0,65534,65535,65531,1,0
0,65534,0,0,0,65513,65479,65528,0,0,65533,0,0,0,0,65524,65531,65526,0,0,0,0,0,0,0,0
0,0,0,0,0,0,0,0,0,0,0,0,0,0,0,65491,0,0,0,0,65519,0,0,0,0,0
65486,64843,64883,726,65479,65397,64253,1829,724,65468,64868,64905,272,65409,65260,64825,550,1327,583,65183,1090,64327,1984,1401,65293,0
64590,260,1840,4929,65404,63625,63887,2055,1309,108,64771,2234,4,64650,775,1299,1829,64476,2328,64956,64410,64551,63483,65119,65398,0
1186,65102,715,2479,63031,63880,1197,3085,457,64387,65440,2041,1251,62320,710,787,64017,1902,1122,3373,2762,65241,63828,235,1521,0
0,65535,0,65535,0,65528,65535,0,0,0,65528,65527,65531,0,0,65532,0,65531,65523,0,65535,0,0,0,0,0
65525,65530,65535,65511,65495,65494,65529,2,4,65535,65526,65506,0,65535,65530,65504,6,0,0,0,65518,65528,65535,0,65535,0
0,0,0,0,0,0,0,65534,0,0,0,0,65535,0,0,0,0,0,0,0,65528,65532,0,0,0,0
64457,64702,65088,64779,64781,63898,65113,64927,63496,65188,310,1154,742,1212,2080,63045,855,64469,65296,65518,64123,64425,63987,1801,65283,0
63752,2265,117,213,725,478,99,3924,65190,64582,1612,64258,64420,216,2583,62339,64060,706,648,64796,64928,1384,64667,2215,544,0
64664,63063,2184,63678,253,64009,965,1353,60167,65208,63885,2494,2290,59120,313,61439,1287,583,819,934,64684,4807,2243,2470,522,0
65534,65535,65534,0,0,0,0,65535,0,65535,0,0,65535,0,0,65529,65532,65534,0,0,65532,65535,0,65535,1,0
0,0,0,0,0,0,0,65533,0,65535,0,0,65528,0,65506,65535,1,1,65535,10,65535,65530,65527,65530,65509,0
0,0,0,0,0,0,0,0,0,0,0,0,0,0,0,0,0,0,0,65535,65535,0,0,0,0,0
9,65478,65248,65465,65398,141,65184,64498,64724,64748,65463,64731,64324,61,63358,64949,64117,64498,65110,63091,64210,64642,2531,65514,63688,0
65349,64541,64897,497,65247,113,11,66,898,65334,64204,65223,65528,3424,1859,63365,1242,133,64011,63904,1213,63744,63171,64622,64635,0
64817,64980,564,1957,445,63835,64258,64922,64398,2051,568,63565,63938,64844,1016,1665,62957,2050,62227,63707,2636,75,61215,63823,60542,0
0,0,0,0,0,0,0,65535,65534,65534,0,0,65525,0,0,0,65534,65525,65522,65529,0,0,65533,65533,65535,0
65522,33,65515,65452,65504,18,65532,65535,65533,65515,5,1,65522,65525,65524,0,65535,1,3,65499,0,1,65535,65525,65503,0
0,0,0,0,0,0,0,0,0,0,0,0,0,0,0,0,0,0,0,0,0,0,0,0,0,0
64921,1180,64269,65473,1180,65026,836,64662,64667,63990,262,556,64645,401,64404,65502,65044,65523,65369,63927,65529,65233,64676,64720,130,0
65183,65410,64748,1660,65368,64459,64957,64869,64744,1620,64521,65454,86,64427,1655,790,65268,3,64713,63635,64594,1132,64428,63396,63861,0
64776,64648,1187,60541,2018,1822,63676,323,139,65057,867,64661,62915,64145,3288,1237,64978,64976,1190,1249,18,2587,324,806,64562,0
0,65531,65534,65535,65532,0,65533,65534,0,65530,0,0,0,0,1,0,0,0,65535,65527,0,0,0,0,0,0
0,0,0,0,0,0,0,0,65535,65533,0,65535,0,65535,0,0,65535,0,0,0,0,0,0,0,0,0
0,0,0,0,0,0,0,0,0,0,0,0,0,0,0,0,65534,0,0,0,0,0,0,0,0,0
573,370,65140,652,65239,34,1012,65133,64427,768,195,1897,65310,1072,863,373,64175,64995,1228,65420,15,263,65352,6,65122,0
63661,63907,64338,63663,65508,65399,63704,61912,65475,63233,619,61978,437,348,1522,1427,1708,1081,60375,688,65333,2228,475,240,65468,0
1664,63667,418,64239,64927,64758,63523,688,61231,63196,64622,1310,64445,64105,3606,2439,446,62323,922,2188,983,1900,1641,686,3766,0
0,65532,0,0,65533,0,65532,65535,65534,65534,65535,65534,0,65533,65534,0,1,65535,0,65530,0,0,0,0,0,0
0,65535,0,65534,0,0,0,65535,65522,65531,0,65535,65535,65527,65526,0,65535,0,65535,65535,0,0,0,65534,0,0
0,0,0,0,0,0,65534,0,0,65531,0,0,0,0,65527,0,0,0,0,0,0,0,0,0,0,0
1406,1880,1255,1399,65268,423,65502,120,2451,63833,600,63491,65219,837,64085,64056,62619,63716,65503,64851,65196,65277,64934,63624,63676,0
64061,937,248,3386,5518,63136,696,608,63359,82,44,65224,50,811,62930,1999,3808,1559,63644,62413,2843,5170,1041,63337,64585,0
489,255,1633,63776,64808,1469,1619,63783,65314,64885,63849,63244,881,1727,1324,137,61365,370,1678,1778,301,63974,593,2467,2311,0
0,65532,0,65535,65534,0,65523,0,1,65530,65535,65526,65530,65523,65534,65535,0,0,65533,65522,0,0,0,0,0,0
0,0,0,0,0,0,65535,0,0,65535,65535,0,0,0,65530,1,0,0,65535,0,65531,65527,0,0,0,0
0,0,0,0,0,0,0,0,0,0,0,0,0,0,0,0,0,0,0,0,0,0,0,0,0,0
8,65525,64846,242,65355,1202,129,174,243,65399,938,65434,429,341,65517,64837,432,485,63361,64486,464,1791,404,65403,543,0
65414,64461,63742,306,126,63,65153,261,711,189,422,63718,1802,64978,63691,104,65140,65152,479,446,2267,1144,64796,63754,65100,0
64946,2006,6,961,2765,1495,2564,62576,1232,2429,1677,65419,64222,248,1542,2806,2944,471,208,63117,63643,64966,65091,233,1296,0
0,0,1,0,0,0,0,65535,1,65534,65535,65535,65535,0,0,65534,65535,0,65535,65535,0,0,65535,65534,0,0
0,65528,65534,0,0,0,0,65535,0,0,0,0,0,0,0,0,0,0,0,0,0,0,0,0,0,0
0,0,0,0,0,0,0,0,0,0,0,0,0,0,0,0,0,0,0,0,0,0,0,0,0,0
387,64972,63007,144,65157,63831,64429,64832,104,992,64936,65055,63783,2809,580,64888,64074,254,903,65388,64911,1001,65517,65257,127,0
64749,63438,1642,2905,3749,62949,63551,778,2458,957,64277,63550,64519,63328,63045,1111,62586,64883,62653,902,64106,64768,63844,1471,1006,0
64834,63094,74,65122,2138,64396,65457,64866,64831,3232,1222,65390,506,6298,2031,65004,3647,63859,1883,2365,982,65042,1986,572,64474,0
1,1,0,0,65529,65535,65521,0,65531,2,0,0,1,0,65529,0,0,0,0,5,0,0,0,0,0,0
65507,65523,65508,65508,65515,65498,65532,65513,65515,65528,65509,1,65526,65532,65519,65530,65534,65516,65515,65522,65523,1,2,2,65535,0
0,0,0,0,65534,0,0,0,0,0,0,0,0,0,0,0,0,65535,0,0,0,0,0,0,0,0
567,65079,64609,64959,65111,64396,65190,963,64362,64786,64416,258,65136,71,788,24,65383,65308,65520,65155,65014,65134,65192,65093,172,0
63949,64773,65327,64748,65219,1226,1737,28,64729,366,64698,63687,1174,65163,1018,65404,65001,63484,626,229,63712,64799,65446,3273,2409,0
2460,61975,1140,64967,630,1978,1615,1743,86,2692,2530,4399,63753,1253,64881,65509,62019,62156,63422,63251,64795,65270,65136,65045,815,0
65534,65532,65535,0,65532,0,65535,65533,65529,65532,0,0,65535,65535,3,0,0,0,0,0,0,0,0,0,0,0
65514,65532,65533,65530,65535,65518,65534,65527,65534,65535,65524,2,65522,2,65519,65512,1,17,65533,65502,65507,0,65526,65489,65491,0
0,0,0,0,0,65533,0,0,0,0,65535,0,0,0,0,0,0,0,0,0,0,0,0,0,65535,0
65348,739,64926,64120,65461,111,65458,64313,63924,65141,65151,64979,65269,65238,65502,65513,64878,63845,64534,63858,64848,63965,791,173,64862,0
2367,818,1488,65452,565,1747,2047,61586,1233,64872,5211,65190,63983,2694,64572,772,62363,61533,952,215,570,63554,2940,63888,555,0
63832,3081,479,65415,64341,62797,2359,65344,62222,65113,609,2390,61598,62950,71,1309,2932,2205,3235,64983,1903,964,704,98,64786,0
0,65535,65535,0,0,65535,0,65534,65535,0,0,0,0,1,0,0,65535,65532,65532,65534,0,1,65534,65533,65533,0
0,0,0,0,0,0,0,0,0,2,65535,4,65529,1,65533,65520,0,0,65534,65535,65530,65529,0,0,0,207
0,0,0,0,0,0,0,0,0,0,0,0,0,0,0,65531,0,0,0,0,0,0,0,0,0,502
65285,126,65464,65361,10,790,64860,120,64281,65048,63394,65418,63713,64081,64701,814,1413,1260,65093,933,185,213,520,64631,175,1786
64365,64624,65139,64727,65268,403,2217,2910,3725,64749,224,64377,599,1285,2170,63193,62861,62700,64667,64644,1944,2157,63186,64636,64666,2401
917,64917,64004,1980,2037,62492,413,64585,62600,61732,194,65445,64885,62044,62404,2574,65002,62650,64769,1729,1363,2475,1000,64033,1213,2043
0,0,0,0,0,0,0,65534,65530,65534,65534,0,65532,65535,65528,65533,65535,65533,0,65535,65534,65535,0,0,0,1381
0,0,0,0,0,0,0,0,0,0,0,0,0,0,0,0,0,0,0,0,0,0,0,0,0,0
399,1101,63429,65212,37,63363,572,2474,63759,63566,61890,63850,2017,64996,65375,61609,747,64920,65227,742,63081,1895,3422,237,1026,0
964,65076,64945,63877,653,64713,506,1548,65269,684,1525,2206,63679,832,612,2303,719,63330,65394,65012,698,1156,63881,65489,36,0
190,64820,63971,63945,64161,1616,64546,1715,62391,61889,63143,500,2914,62926,64199,4094,63992,63423,1381,2649,1871,65410,2662,2318,63869,0
854,64946,3093,63542,63137,2321,480,63760,62288,62647,678,130,61392,62694,973,3215,65492,62578,64320,63962,89,1527,62553,63223,63028,0
978,341,64064,64070,65477,69,64333,65417,64152,228,1326,65499,677,65264,64922,1732,3019,1321,2884,1075,64298,2331,65241,63309,63745,0
0,0,0,0,0,0,0,0,0,0,0,0,0,0,0,0,0,0,0,0,0,0,0,0,0,0
769,64927,308,64613,669,1672,65308,2186,65022,62766,1924,4894,1009,63365,64971,64484,2822,2209,64281,2037,61847,1358,4422,64227,1933,0
65008,64641,581,902,64126,65014,65145,507,64239,64674,65468,64639,64453,64891,64124,64555,63938,222,64787,63107,64547,65072,65400,65209,65348,0
455,62605,798,63401,64182,1871,3794,64991,64372,1421,53,1853,65482,1699,1554,64466,64311,1474,3363,2625,4007,3206,64694,1109,1426,0
65408,626,12,65207,598,834,1788,1977,63178,61062,1094,2163,616,63531,62663,1721,2606,530,688,1126,61723,2310,2218,65088,549,0
65489,1854,63808,64003,192,64821,228,1184,2942,64511,63067,757,508,64916,63583,63996,31,1027,1542,63355,64983,1991,65512,2450,1030,0
0,0,0,0,0,0,0,0,0,0,0,0,0,0,0,0,0,0,0,0,0,0,0,0,0,0
3644,1627,63492,435,64143,494,4789,269,65129,58,1732,3558,1015,63296,769,62256,745,65010,64920,64553,365,1169,63544,65147,420,0
64807,86,65492,65228,64505,64496,64154,64245,64431,64649,64260,64855,64867,65158,64522,2029,99,64916,567,65215,904,1419,65525,64688,65024,0
1001,64471,1875,1608,210,898,2146,2483,61204,65144,65435,64727,920,61926,1532,2059,3347,63594,62682,61440,65469,63380,63927,876,843,0
852,1096,64822,1002,326,64654,1193,2665,64351,64938,1932,886,64542,64486,515,65106,62883,64406,2866,1366,1723,854,79,65011,64898,0
65493,63156,732,936,1699,2886,35,267,62149,909,2322,1932,64804,65325,64923,4389,62875,60879,2459,2485,3527,1183,851,660,64413,0
0,0,0,0,0,0,0,0,0,0,0,0,0,0,0,0,0,0,0,0,0,0,0,0,0,0
60327,62516,3822,499,88,64270,116,63746,62755,62826,64340,1702,61684,63740,64661,61775,64128,64600,64738,65487,65430,2521,65254,466,65505,0
1148,704,14,64493,65510,64913,64912,902,65035,64915,63961,64933,134,1383,65044,64682,65187,170,1542,3,63660,65287,64735,65494,158,0
952,64706,65467,64762,63130,63685,62149,63094,63840,738,62743,1452,65054,65465,60367,3496,3317,4583,2383,64876,65527,2131,142,64280,307,0
64180,63314,65286,62889,2087,62529,64440,63734,64737,64617,63646,65490,63130,1311,63066,3573,65002,64374,65237,65331,610,2154,65434,65445,65374,0
916,2226,65188,63687,421,471,64320,2583,63354,65376,4002,2659,64145,61162,119,328,147,64431,2795,375,2003,64551,2462,770,852,0
0,0,0,0,0,0,0,0,0,0,0,0,0,0,0,0,0,0,0,0,0,0,0,0,0,0
64102,533,542,65005,63992,148,4474,7320,643,64102,1282,65336,3351,65083,63350,64930,958,1556,65054,65338,64907,65172,64960,391,65179,0
64590,437,827,1972,64789,65421,63863,64702,41,64145,65021,65388,479,63960,62524,64547,23,64508,65441,64600,65325,63999,65427,65473,484,0
63105,62530,4467,63895,62145,63442,65355,65492,62888,1416,63779,64601,2109,1132,2060,63369,64527,64706,498,2205,65480,316,62476,62721,1568,0
289,64911,64305,62731,676,64713,64580,63039,61643,63470,1860,61711,64627,62072,62703,164,300,62996,297,60889,12,2789,596,132,64788,0
64767,63105,64042,65213,192,2549,781,1044,65241,62470,2948,75,1617,1896,64006,1432,985,286,715,62366,510,65227,63924,46,63779,0
0,0,0,0,0,0,0,0,0,0,0,0,0,0,0,0,0,0,0,0,0,0,0,0,0,0
2163,63723,65532,63752,65012,1354,341,65296,63667,65404,928,64498,1402,63170,129,64454,65143,1113,64605,64844,61531,251,1014,670,65442,0
64562,4008,1518,65189,65124,63956,64550,64338,65184,64410,797,251,65501,208,64978,1425,496,63710,64244,65408,1277,2110,63561,65172,1160,0
3354,528,64197,65330,579,3530,2162,1130,63779,617,65002,698,534,175,1171,65131,781,64798,1348,1016,2389,65464,61807,1204,227,0
65529,62988,294,3912,1027,1529,64352,64486,1609,1812,1112,63339,63001,63701,385,668,1732,63605,63318,64553,2189,2313,2405,825,289,0
62628,2195,1324,64949,65264,621,64627,2320,196,2048,63783,64303,64687,131,1618,1634,1267,1347,63935,63704,62601,710,2148,204,152,0
0,0,0,0,0,0,0,0,0,0,0,0,0,0,0,0,0,0,0,0,0,0,0,0,0,0
64335,64229,64369,65495,605,2384,1451,63510,2393,1334,626,624,1070,63751,234,1303,65058,63330,64883,156,1896,65055,64000,63145,53,0
65407,64739,64840,65184,1054,64223,64594,762,64736,65135,783,65038,96,64586,65433,64300,65345,1571,666,65047,324,1354,542,64749,64840,0
957,3581,2314,2241,258,3087,62078,1312,1352,64663,1294,63620,657,62005,64304,65475,64778,65486,740,64378,62149,265,2592,65454,908,0
64230,4078,3450,7,1756,64532,3838,59,64524,65019,463,2615,630,62090,1670,64806,2322,65342,741,63275,64389,3287,64974,63474,62344,0
65379,63983,2005,65304,35,1596,299,62618,62642,1176,65387,1143,63270,1365,2343,259,1892,2166,2854,1575,64076,41,246,65164,62847,0
0,0,0,0,0,0,0,0,0,0,0,0,0,0,0,0,0,0,0,0,0,0,0,0,0,0
217,299,65038,42,64452,2102,2428,63537,64852,1219,65092,949,64599,64403,820,64673,63836,64526,2495,64874,64339,1345,64836,63728,64506,0
65458,65243,64830,279,65064,65335,876,933,63763,64542,65326,99,659,65519,257,63750,65010,64606,163,62950,1573,349,63686,816,738,0
65516,64095,64566,65022,64731,255,64936,63745,393,2771,61939,62134,63183,1233,5247,60780,396,298,5260,3092,502,63466,2066,64923,2631,0
193,65369,64469,709,770,1158,1335,527,1569,4485,417,65283,2016,64279,2522,64463,605,1004,64966,65332,202,788,1647,1318,939,0
65400,65244,64791,1266,670,65049,64691,1521,65352,64860,65441,65529,2670,63084,1694,62967,64939,649,62130,1047,62752,64735,64740,62684,61782,0
0,0,0,0,0,0,0,0,0,0,0,0,0,0,0,0,0,0,0,0,0,0,0,0,0,0
1435,1225,1621,63635,63174,63359,64881,63405,3746,1422,64826,22,64422,64313,1293,65305,65451,457,65235,64123,280,64781,64920,1173,2894,0
65039,65191,64457,52,64632,65370,65492,64777,65484,64824,9,65437,65214,64709,64977,65528,83,65281,65146,64583,65521,65480,120,64734,7,0
141,722,717,3275,64522,886,63475,62657,344,2297,63060,828,63254,208,65445,64071,64983,924,2478,1202,244,64940,1547,3868,278,0
65182,851,64959,119,816,65333,1076,62705,1010,650,886,971,63153,65153,64136,348,398,456,456,65327,65524,64681,1508,1364,293,0
3568,469,342,64558,65072,342,890,235,1067,64225,656,887,481,5068,1953,804,4,292,64113,62462,1946,63688,63730,64433,63922,0
0,0,0,0,0,0,0,0,0,0,0,0,0,0,0,0,0,0,0,0,0,0,0,0,0,0
6,65414,1032,1362,187,856,65124,3794,4893,63064,62817,63343,1583,708,64606,64729,65435,1034,318,64754,1532,63739,298,5,64677,0
77,64527,63777,2206,64697,20,64828,256,1748,64491,65476,65229,607,64138,65308,65331,63923,65215,64127,65015,304,65092,2088,63765,325,0
22,1916,63035,2476,64452,386,2238,1732,2143,63498,780,61502,3665,65163,61815,764,2443,2867,64788,64230,64673,63621,162,64393,509,0
63617,64291,64790,2740,63672,65042,64625,64742,201,63953,495,2330,568,63046,64982,776,1518,2504,2466,719,1351,704,64672,64730,63950,0
64403,64508,2901,1547,65140,64939,65068,119,759,64070,1034,462,919,64765,64221,64282,64785,3758,64536,63500,714,65293,3106,220,63424,0
0,0,0,0,0,0,0,0,0,0,0,0,0,0,0,0,0,0,0,0,0,0,0,0,0,0
63542,62155,2927,717,65201,63542,61971,65482,761,62694,63673,63092,3235,937,62408,64411,65297,3081,33,63558,64474,65053,3515,2297,517,0
65430,1393,462,1250,63868,64835,231,65114,2759,65059,64992,64371,65530,518,207,64623,65200,63554,63644,65321,191,293,1351,64669,64553,0
600,63826,65520,0,63960,64469,63977,1378,64162,64414,61551,64638,4023,64288,63539,65455,138,2060,2926,1390,1784,1223,303,1099,213,0
65085,64595,64216,64481,1777,615,65488,65111,61882,2809,63290,64196,64744,65317,64559,65002,1533,2404,62889,60878,65364,1303,64285,61659,61630,0
63604,63889,64550,811,64980,285,881,4089,826,64724,65472,1165,1123,64606,65169,1902,2514,64785,64201,62038,1744,1746,1143,63897,61201,0
0,0,0,0,0,0,0,0,0,0,0,0,0,0,0,0,0,0,0,0,0,0,0,0,0,0
111,65283,65067,781,64492,65364,64527,354,64075,65530,63239,2257,520,761,1114,62545,64408,282,1384,2662,65249,2730,64460,315,307,0
65420,65130,65116,64645,65408,65527,65416,816,65373,110,63906,1185,571,64850,1220,63413,2,65400,65337,55,24,65373,63923,64705,65450,0
231,65089,63696,600,64987,64632,64428,63594,65507,2455,65313,64536,63911,1526,64774,1052,471,1434,1966,64958,1506,3086,1724,35,64560,0
6,65181,65219,65136,64566,403,64077,1630,4,106,64085,63361,1202,1094,3351,852,534,431,257,65109,1127,1989,64691,63272,64486,0
65369,64213,64491,1081,1599,705,65011,1710,63300,336,495,577,433,64488,1984,1676,65099,2738,63142,2141,377,62142,65077,64455,64808,0
0,0,0,0,0,0,0,0,0,0,0,0,0,0,0,0,0,0,0,0,0,0,0,0,0,0
203,216,1011,63567,64645,855,65236,65482,1715,64684,65203,63209,63421,63890,64206,64937,65350,2226,893,802,65072,64961,2315,357,65501,0
65274,65324,879,1406,64229,65053,64975,63664,171,65426,311,783,65382,65028,65202,195,64729,64010,64376,137,65489,483,1263,65374,35,0
65419,2565,5224,1821,4018,231,206,4459,1598,64993,117,65534,1506,62319,63528,65453,64044,65302,64835,759,0,64919,1060,64259,23,0
690,1134,64237,64585,3500,792,1687,62856,1927,63371,1258,1687,1650,114,65188,65362,1565,2152,62715,65478,65144,1369,65353,64223,64668,0
64522,64237,62881,61981,64933,250,65407,63015,63421,65098,64508,3265,909,65470,62772,62825,2926,1541,64587,63368,63884,2041,65255,74,459,0
0,0,0,0,0,0,0,0,0,0,0,0,0,0,0,0,0,0,0,0,0,0,0,0,0,0
509,1273,65039,63089,574,62472,2912,2413,952,2086,64470,155,63429,63049,790,2850,1519,64538,2281,64753,2944,63713,487,63850,43,0
601,579,64687,1247,64157,64616,65485,64744,65519,65451,65452,64836,235,64796,65343,65305,65231,86,281,65157,65468,65144,65106,65257,64533,0
65402,64189,1417,3823,3363,4549,167,65321,62634,63690,62969,64242,64050,64689,64171,1757,64352,64716,65375,64442,143,64522,63820,1745,65428,0
65205,64714,1587,63495,139,65187,2582,3329,1952,65345,64884,372,65216,1149,65413,1502,647,770,328,81,64107,64629,472,64283,65445,0
65379,64326,64589,238,1301,2950,878,64489,63462,1513,719,64381,61750,64557,1788,64089,64652,1076,65146,1931,64649,215,1161,1179,1326,0
0,0,0,0,0,0,0,0,0,0,0,0,0,0,0,0,0,0,0,0,0,0,0,0,0,0
487,64734,64585,62512,662,176,64275,111,1587,595,1166,64914,63334,62120,2865,63532,2143,63753,63443,1245,4475,1104,278,1805,2135,0
888,65057,472,65138,65409,1433,65088,660,65057,65386,672,18,63863,63616,64781,103,64298,62863,226,65444,588,65029,64948,64528,197,0
2452,63085,64360,63699,65027,64533,61862,63014,2468,3851,1158,1914,63421,34,4892,77,63894,61525,63701,2737,1955,64679,63343,64513,65206,0
2460,458,64867,1526,64879,65140,64696,64897,63986,1230,1972,63585,2581,745,2504,1333,61768,3960,329,2305,1082,63603,3035,1457,1616,0
2630,65168,63477,65514,788,64069,3059,62160,696,472,63288,1253,64090,2899,428,3337,65173,962,1990,63004,134,1618,63870,62752,2214,0
0,0,0,0,0,0,0,0,0,0,0,0,0,0,0,0,0,0,0,0,0,0,0,0,0,65528
2001,2175,64830,405,65005,1053,2631,65297,859,2322,61068,690,2154,65005,1277,61325,198,63922,64573,65442,62521,64832,43,178,65309,5788
65217,65411,64967,65520,65333,65488,469,488,65083,64829,65019,922,64627,64657,64502,64428,65488,2026,65411,64858,64474,1314,65014,683,39,468
859,1188,2446,64549,2583,63856,65077,65013,1543,2171,1155,63626,63814,1097,65277,612,63837,398,65463,428,1191,64391,1970,2595,65503,4750
65208,581,3599,65180,65192,1020,305,1710,592,64478,63871,62674,235,112,191,5,559,62993,261,621,64673,64097,64968,444,64685,6931
64639,64213,173,799,64921,76,925,1218,1516,934,947,404,64516,64104,65235,64790,64070,65242,65164,65124,63969,1365,3592,64700,65520,3517
64491,65151,64791,64228,64409,64346,65097,65172,64384,64640,64394,64849,65448,11,71,63872,64937,65278,65489,65495,64183,64301,65207,65422,64930,0
64682,63059,1606,2105,7027,62005,63218,76,65046,3814,1004,64185,61292,63719,62647,1757,64327,65504,65130,63178,64979,63201,474,64316,64695,0
63328,126,62611,62788,65218,64906,64593,64004,779,65426,1736,63946,64280,63465,64255,63443,64235,1,139,1889,63220,65307,65440,284,64873,0
62945,307,65375,65376,65345,62504,63288,472,1358,64531,63203,1453,64918,65429,64516,65148,63350,64005,1160,1803,1687,62908,64829,65130,1081,0
64816,63767,65236,65083,65356,799,64994,258,63622,408,64068,348,143,64463,64920,2011,650,63765,905,64902,994,12,405,814,89,0
65526,0,0,0,0,65486,0,65535,65535,0,65429,0,65527,65533,0,65394,0,0,0,0,65485,0,0,0,0,0
65001,65471,65171,64190,64453,64178,65160,64151,65005,64425,65132,64847,65124,64648,63749,64460,65117,64752,64921,65492,64741,64666,64564,291,65465,0
1269,307,64667,1004,807,62031,264,64900,1808,219,63193,62949,1557,499,62670,64698,972,1350,2719,3178,2562,63498,62473,63655,64033,0
64472,1050,51,64752,64072,2761,2825,65370,26,1805,62731,1313,1752,65282,64822,2228,63240,2091,64846,1012,3611,64947,1212,64796,64132,0
63514,64772,1392,1669,1059,63744,2420,1160,2260,65300,3446,62142,64563,64143,2771,47,65106,97,64280,61394,65003,5194,64006,2522,350,0
2137,65287,64786,64591,63811,1812,786,64510,64874,34,474,63172,62949,65524,65337,2594,65503,2815,65375,467,64234,62459,699,63018,65054,0
0,0,0,0,0,0,0,0,0,0,0,65535,0,65535,65535,0,0,0,0,0,65535,0,0,0,0,0
64494,64840,64094,64535,65099,64552,64543,64617,64925,66,64832,64913,64783,64032,64753,65332,64467,64881,640,232,64292,65455,65482,65412,36,0
65278,62407,65429,799,65458,64379,63847,650,1709,64247,62261,1320,1317,299,804,3124,64957,63441,1327,1186,64918,63366,64108,65134,730,0
63564,63560,2941,2792,65200,62879,2459,62524,1451,65030,62780,62795,64339,2651,62206,63018,1491,63788,64335,997,63249,64840,64195,64853,65447,0
65019,64321,908,64289,1395,65125,2410,64188,64110,64787,2502,64664,531,130,64070,17,64497,63877,63166,65212,1021,1635,63686,61971,154,0
63296,63730,64830,65290,470,63800,64755,291,63358,63416,64722,585,1431,635,64914,65037,65489,62814,1659,731,65318,262,1183,870,64608,0
65535,0,0,0,0,65534,0,0,0,65535,65534,0,0,65535,0,65535,0,0,65535,0,0,0,0,0,0,0
63924,64213,530,64622,64428,64040,64952,64793,64555,63545,64479,64809,65377,64405,64238,100,301,65474,65290,65296,65186,64663,16,64938,65487,0
64706,64353,1148,62418,2305,64877,64542,2611,63434,4721,3363,64135,1863,61826,63767,63122,782,64901,63891,64775,64864,65079,64814,360,206,0
61543,1103,64506,2674,1993,1735,309,64998,2363,1014,337,63806,62425,64635,27,1037,370,64207,65358,64769,1605,64372,65243,65474,65185,0
1984,60,65109,1368,62218,3399,513,64264,64618,63651,182,64399,1005,1512,65274,1380,149,64873,65267,64686,278,1481,1371,65271,326,0
923,1722,564,63600,65396,63708,64834,1138,64024,65184,1414,87,1121,65290,214,9,63911,65200,64640,355,287,64603,17,824,242,0
65524,65509,0,0,65535,65484,65527,65534,65535,65524,65513,0,0,65535,0,65533,0,0,0,0,0,0,0,0,0,0
65036,64370,64137,64135,64588,19,64681,64305,64753,64596,64991,445,64909,64630,64054,64756,64643,64787,64796,64577,63942,65316,68,64534,64235,0
65150,959,63260,3141,571,64947,63157,62575,328,63939,64848,64405,65071,63096,792,63634,65431,64917,65199,63521,573,64360,64292,63473,65188,0
64462,64583,65446,65079,65506,64333,63272,62819,62847,64283,1570,1193,1554,65221,65529,64804,65454,65219,708,175,64133,64559,64946,64683,64723,0
101,1778,63889,63915,65468,2257,64843,64751,64153,562,64789,2883,64641,773,1933,65488,196,65067,63461,1189,63649,64481,63509,64849,81,0
40,65120,785,64551,275,454,64743,608,64205,314,65003,64924,65456,64589,64976,171,65052,240,64642,64974,65167,65194,965,387,65514,0
65534,65528,65531,65531,1,65529,65535,65483,0,65480,65534,0,65426,0,65466,65532,65532,65508,0,65530,0,0,65531,0,0,0
65469,63712,64986,623,64979,64844,63504,65285,64676,64549,65043,65219,64611,64798,25,64611,65485,64657,65126,16,64320,64611,605,201,64767,0
64274,65447,61825,721,65174,63657,64354,64174,65379,183,64480,1867,64916,768,1122,258,64273,63911,64918,65003,3907,407,64054,64090,65146,0
64841,64670,65048,1416,678,65360,64984,65018,64561,65297,64959,63152,63516,64107,65367,1304,1161,64243,65300,75,485,65412,132,65186,65260,0
551,401,64686,2065,367,63827,65446,63412,2427,1507,320,63760,64531,64013,29,64129,63806,65037,926,1566,64135,65510,65472,64872,1738,0
65401,124,64905,65047,65494,65388,126,65171,681,711,64639,65430,141,64767,286,65334,545,1127,98,65123,1144,1093,590,830,65233,0
0,65530,65535,0,0,65534,65522,0,0,0,65524,3,0,65516,0,65480,1,65505,0,0,65518,0,0,0,0,0
63948,65482,64950,64857,64383,64309,65097,65079,64789,63949,64364,65528,15,63889,64184,64065,64645,64265,131,64860,64494,64224,60,63831,65082,0
1403,61861,1087,63755,1183,2611,64376,2218,1601,2125,59265,64748,991,904,64431,64435,64544,64427,65448,64121,1394,62748,720,64307,64350,0
63637,64308,1301,64713,63886,647,64473,385,64518,1233,64801,1724,64179,977,65514,1716,1080,64540,65389,65424,64769,29,62889,62846,63169,0
176,64095,647,1522,2628,64462,3725,1299,299,62955,2760,95,64436,1835,65241,65456,64470,64860,94,296,2192,64157,62429,62665,3497,0
65112,63661,64462,65233,64592,57,65371,64866,64381,65223,64720,65209,1019,65518,508,65184,65097,246,65152,70,64921,64858,491,181,142,0
0,0,0,0,0,0,0,0,0,0,0,0,65535,0,0,65533,0,0,0,0,65496,65513,65521,65534,0,0
65533,65529,65465,64937,64515,65533,1,64836,362,65356,65235,65407,119,1377,275,64445,64983,64942,64488,63975,64107,133,65017,63950,64718,0
415,805,590,15,58,64436,64230,64354,64019,62349,65045,63021,62409,64090,63598,1149,64639,1146,2793,64350,65436,62647,1472,64760,65010,0
248,57,65275,64747,335,352,64979,128,65404,339,553,64631,308,64814,524,392,2076,4003,1861,64450,64213,62637,960,63382,65063,0
410,636,65071,64326,388,446,64549,64402,65443,1606,1061,3147,1836,1272,3030,64446,2307,690,3102,63419,64474,2614,63524,100,64936,0
65502,65424,65301,65288,65089,65535,65445,65283,65231,65180,65491,427,65438,127,65487,64800,65317,65026,65106,64844,65097,65150,54,64913,65406,0
0,0,0,0,0,0,0,0,0,0,0,0,65535,0,0,0,65534,65526,0,65512,0,65527,65527,65528,65533,0
64142,65395,64558,63928,64589,24,64973,64540,63662,64839,6,65515,64491,64654,64772,65534,65535,21,299,63588,2,65225,1144,65046,64783,0
217,139,64575,62795,391,2551,64800,65198,64458,62439,1556,1131,62680,64970,1445,64844,64940,620,1485,411,64278,64497,882,17,64594,0
61589,2030,64357,65161,65480,2104,1685,64447,64330,64142,3322,1277,64515,65318,1866,64315,65477,366,64424,2287,1338,65174,434,1244,51,0
470,2247,1240,859,255,64091,1897,48,2318,61748,63642,928,64699,64954,64903,1862,65252,1927,796,1577,389,64502,2047,65533,64408,0
326,2515,65286,64542,63558,63550,65257,636,65150,63515,65438,1329,65349,63347,178,64371,397,64878,360,63461,64521,91,1421,64508,65064,0
0,0,0,0,0,0,0,0,0,65535,0,0,0,0,0,0,0,0,0,0,0,0,0,0,0,0
64460,65194,64187,64478,64262,65222,680,65178,63889,64675,65190,64244,64642,63699,65027,65508,64399,64882,15,65484,65178,64783,64950,33,11,0
64215,1510,64956,62824,1713,64027,2168,65286,343,2300,64746,98,583,645,65029,63963,474,142,2315,62268,64084,65117,64686,64320,64514,0
64995,64076,64777,508,1282,1472,1010,307,1943,337,789,65472,65227,64025,64349,976,2099,65305,63041,64752,7,240,65213,65140,65369,0
753,543,2257,64094,62875,28,1672,1918,65049,2432,64298,65334,63699,64180,1929,65,65156,64628,62508,2824,65416,64999,65439,64298,65407,0
151,203,64733,65374,64108,194,65426,64786,65288,63874,65458,181,65109,1272,64457,65287,65296,65419,922,65241,65275,65133,65162,265,65395,0
0,0,65534,65529,65504,0,65529,0,65533,65525,0,65527,0,65502,0,0,65517,0,65532,0,0,0,0,0,0,0
65490,64484,64638,64559,64769,64872,64404,63902,63576,64329,64823,64796,64084,63891,64526,64453,65108,193,64845,65051,65216,66,64292,65053,64938,0
65023,64472,60952,64732,65133,65488,63496,64628,559,64048,975,64968,63250,64237,65499,2446,64895,64222,60471,64044,329,430,64717,62224,63287,0
63439,213,64053,1519,1158,62599,63374,63091,65520,64571,64358,64971,63799,64028,63090,65512,222,64171,61359,62253,65385,1656,64226,63493,64841,0
65347,503,313,735,3711,275,3892,62931,43,681,65321,64642,63498,479,65500,25,65262,64388,1735,4610,65068,62926,65130,152,169,0
586,65522,65131,205,65053,65297,79,1021,64817,147,65316,64635,1046,56,26,64817,65015,64974,298,64888,64490,65482,96,84,522,0
0,65361,65526,65464,0,0,65419,65532,65408,65530,0,65485,65533,65535,65417,0,65524,0,65516,65532,0,0,0,0,0,0
2,65360,65105,64883,65076,65533,64939,64954,65311,64724,64937,64019,492,339,64325,64527,64546,65463,65305,64379,64046,64618,65168,63859,64977,0
65532,595,63704,962,288,65234,64373,65318,64024,63476,65065,61210,1092,64722,1776,1524,64288,63771,63259,955,2685,1708,63059,64947,301,0
18,182,65322,65302,65145,147,143,65271,512,65452,65196,65112,64959,1897,277,63994,63906,1473,64337,65390,64681,838,262,88,64607,0
65466,742,146,65435,1010,327,56,887,1667,1757,64505,64091,72,2114,1108,61771,62857,3176,2773,138,634,64165,1336,469,763,0
65450,65322,64975,3,65474,65503,65306,65166,65522,391,1067,65506,64664,196,65038,65027,65069,65485,65006,65012,65224,177,65464,65227,15,0
0,0,0,0,0,0,0,0,0,0,0,0,0,0,0,65532,0,65535,0,0,65510,0,65534,0,0,0
96,64749,63848,63821,64656,64349,64114,64237,64862,64740,63885,63878,65505,65292,65207,65018,64063,65323,65491,65458,65516,64992,64105,64716,65518,0
64732,64926,64470,3080,65004,64684,2556,65368,1007,63264,1154,1297,53,64413,65166,64855,63720,2977,63960,103,418,357,64460,63490,65511,0
64097,64111,64672,64977,65237,64180,64549,63024,64188,64308,1701,1016,64216,65471,62939,747,65363,64824,64508,65269,206,390,65200,65077,64543,0
558,230,312,65313,64147,1794,64678,286,64221,65094,619,64142,63996,2369,409,141,874,839,556,430,177,64247,65352,333,65214,0
65437,65165,65492,64328,796,65414,64711,391,64099,38,64898,64615,287,620,64715,774,65310,1337,65235,614,65096,64457,65326,65123,65306,0
0,0,0,0,0,0,65534,65508,0,65503,0,65534,0,65526,65534,0,0,0,1,0,0,0,0,0,0,0
64257,64861,65257,64698,65334,64407,235,64975,63918,64717,64793,22,282,65240,64784,204,65530,64408,64768,64983,65503,342,65053,64736,64780,0
65275,1474,64990,63992,423,2644,64820,3248,63938,115,652,3353,1847,3496,929,65336,29,3919,65206,377,65025,2490,793,1406,1241,0
756,62964,1560,65124,333,328,65391,1615,1426,64235,602,698,65353,988,836,649,1874,64484,64416,63466,1172,65191,64735,1679,277,0
2717,62852,64684,64401,61620,849,63836,1575,1342,65130,64902,959,416,64506,63750,64789,471,65347,64411,64887,1235,330,65131,62895,65487,0
1046,64360,1809,131,64566,63452,36,64771,1545,956,1769,721,64385,65256,2,64568,1000,1158,644,65165,643,65059,1743,149,65485,0
0,0,0,0,0,0,0,0,0,0,0,0,0,0,0,0,0,0,0,0,0,0,0,0,0,0
64911,477,65111,65017,65102,65413,10,64428,544,51,71,65386,64375,48,235,64606,64330,64041,64945,64515,64004,64436,65051,63820,63974,0
61741,64246,64288,65427,961,422,64673,671,63860,65349,63698,409,63192,63843,64987,64345,62891,63677,75,382,63221,655,1007,252,381,0
861,64976,1360,2759,62283,2402,1162,390,64624,64131,64665,932,1334,344,471,65050,1759,65462,1307,2528,339,710,63079,65515,63972,0
64418,190,1310,575,64765,1949,598,281,1202,65280,65025,64985,64717,653,2194,64703,732,19,2475,841,64264,64934,3738,63903,63919,0
896,64189,473,65086,64638,441,1348,65074,563,64805,64691,64814,346,1113,65257,63829,860,64906,217,64106,64640,862,63167,63365,1018,0
65527,0,0,0,0,65511,0,65525,0,0,65522,0,65487,0,0,65535,0,65535,0,0,0,0,0,0,65520,0
65284,65381,182,65269,65496,64428,64866,65525,64520,645,65073,112,64110,64299,64235,64871,65310,64329,367,65531,63911,41,0,56,65347,64695
65382,65080,64371,65089,280,61597,63532,203,1075,1864,63174,63574,937,2100,64402,1980,64228,2575,371,851,2303,731,63687,64937,64608,951
65386,65509,1139,205,65157,65038,64884,2274,1127,64889,64002,65347,1537,65303,65143,63291,65485,64533,65288,64279,64563,65198,63763,64770,65150,3443
282,65213,65187,508,65121,64280,1787,2167,65159,64733,65414,842,1792,62425,305,2592,64118,63094,210,1257,1583,64376,65342,917,1432,6074
65073,65276,131,30,65377,75,64961,65229,65480,65096,356,65163,65414,65354,619,65470,84,64830,65009,738,49,65460,666,65309,598,741
0,0,0,0,0,0,0,0,65535,0,65477,1,65499,1,65514,65380,65533,65518,0,0,65494,0,0,0,0,155
64144,65364,64227,64289,65211,62023,61754,734,65080,3646,693,65500,65420,64351,65038,599,65175,1323,2321,2129,107,64077,62340,64567,756,0
187,64729,63727,64636,1961,60915,754,64074,1342,64410,63863,1336,239,195,1554,913,64704,65181,2704,81,1160,64258,65211,1216,477,0
84,65318,17,1828,1258,65028,2779,1767,64881,65110,1044,64505,750,274,65163,62035,809,558,1328,64277,64085,687,1313,40,65068,0
0,1,0,65535,0,65533,1,0,0,65535,65530,0,0,0,65533,65533,65535,65534,0,0,65534,0,0,0,0,0
1483,65418,1566,72,62372,64000,65411,65471,497,55,63187,65392,64742,63472,1526,731,63055,26,1379,474,61628,64491,64350,64735,64278,0
63404,63801,64524,3012,1440,3328,62215,2277,64279,2748,2826,64121,891,824,1347,63007,64951,64202,62733,64872,62585,718,64937,64851,64733,0
3333,1493,64737,752,64736,3493,63154,2468,64735,2670,534,2106,62801,62424,65274,64125,1421,4381,64417,2543,101,64572,61626,906,64020,0
63788,61819,2755,62017,63305,4312,3608,64637,1058,1227,65397,60800,1038,3696,63497,556,64743,62924,2323,1680,61587,63052,65013,1229,2722,0
1190,64408,787,65166,1832,1049,3656,62382,65282,1123,1322,64747,2108,1277,1806,408,64884,797,927,2262,63674,2569,63551,1566,1943,0
65533,65535,65535,65533,65535,0,65535,65534,65532,65535,65535,65533,0,65534,65535,65534,65534,1,65531,65534,65530,65531,65527,65528,1,0
1918,2883,3080,64354,61938,65244,65221,3362,1513,411,64943,64995,4033,2818,2615,62679,63577,404,63156,4339,62948,63117,64573,64146,62758,0
64973,568,65193,1019,125,377,907,63214,64476,3496,64231,1246,2627,64054,63455,64856,1362,64722,460,779,63336,2633,1549,2838,999,0
65409,197,62238,65455,4058,534,1701,594,642,65210,64383,1848,1563,2598,493,62019,1626,1048,63574,62823,911,152,3341,1168,336,0
64852,815,2806,62383,65261,62522,2367,63052,1353,64411,1212,294,64715,70,525,64106,154,3185,776,65063,64553,64738,1750,3732,64676,0
899,626,62813,65005,62745,272,65004,64273,65033,65419,64837,331,62690,62009,63946,65467,65422,65173,63102,64543,1157,205,65445,65130,2298,0
65535,0,65535,65535,0,0,1,65535,65535,0,65535,1,0,65534,65535,0,65535,65535,0,0,0,0,0,0,65535,0
1565,2937,65319,64188,1666,61945,766,406,3049,401,63720,3568,63031,2130,65425,1859,2818,3082,1375,64189,64411,64921,2206,2162,64517,0
64508,2036,62955,63743,63331,64974,65033,64334,390,203,1209,64712,1947,61873,415,64892,653,2018,64603,4060,2447,64482,64332,849,158,0
64621,63999,64203,64515,3400,1002,62936,2337,1153,63302,1550,1980,431,61637,62794,63833,1787,1635,861,64348,602,63594,1674,64127,64865,0
63683,64361,1511,62863,205,60153,63209,63353,62917,64369,64426,64564,92,64971,63108,63191,63801,63787,1199,65346,65239,1320,63482,65529,853,0
548,65434,574,1647,81,1993,64932,65340,64982,63289,62417,64122,65522,62344,63796,65458,137,1007,65318,64354,64672,1186,13,65356,384,0
0,65534,0,0,65535,65533,65526,5,0,65534,65532,65527,1,0,65535,0,65535,0,0,0,0,0,0,0,0,0
803,1084,64305,65314,63688,204,719,62109,64052,62646,64477,2814,62138,2950,21,64815,63704,64305,356,50,1447,1812,64688,65024,65417,0
63115,243,62578,61993,1038,1793,4204,540,64585,1660,64480,1665,3981,63476,2395,63854,3531,64981,63662,62244,62439,64018,64820,64530,64308,0
65385,1955,64714,63742,3323,1892,63984,60165,62506,63185,64883,1151,64183,62996,3009,417,65512,62828,64484,1631,1863,64216,65022,574,1411,0
65131,442,65206,160,1138,83,381,1216,1028,3182,64634,63657,64696,64468,63921,64750,73,63438,1558,64045,65161,1261,2141,1087,15,0
65118,63303,496,63931,64691,65267,65447,2858,2437,65004,2201,1128,531,64859,404,213,379,39,258,63830,64645,64035,65045,65342,63957,0
0,0,65533,65532,0,0,65535,65534,65531,1,0,0,1,65535,65534,0,0,65535,0,65534,0,0,0,0,0,0
1338,2440,64453,1920,2692,647,65120,61132,924,1679,63690,61948,62138,65002,1607,1197,2412,63911,496,65360,2056,3027,779,1676,64234,0
293,65308,1958,5940,65241,592,64919,4712,163,62141,62880,64031,2219,63620,60043,2192,63783,1317,186,2646,65087,2046,804,63482,4822,0
924,64134,86,4130,1290,17,491,64233,2979,742,64641,63950,64921,1231,202,64751,63421,2054,64820,3525,1191,62746,65511,319,858,0
65422,63506,816,426,65202,63642,2751,1096,718,0,62253,1583,65070,65130,64919,63146,2173,1373,65430,117,64574,429,1816,1347,65459,0
291,805,65012,595,65063,1610,558,1146,64857,64673,1529,738,97,65296,64875,63515,62813,64309,65458,64578,65438,64450,65171,65412,64898,0
0,0,0,0,0,0,65529,0,0,0,65534,65534,0,0,0,65529,65535,0,0,0,0,0,0,0,0,0
47,64168,392,1506,904,921,63303,64845,615,65466,970,64338,63980,65072,64970,1083,1238,695,64082,65127,2205,3487,62822,64355,65246,0
63169,3703,65099,64823,1257,65164,63743,63441,534,65225,2183,1750,63590,62234,64488,487,779,2357,65035,1519,1780,290,61532,65320,1798,0
62755,281,64217,1926,64027,64653,64476,63164,64548,65021,64802,64362,834,1748,146,2798,63818,65010,64607,181,1388,64212,63214,64339,1280,0
62646,2183,64339,943,553,1663,63882,1066,61743,736,65237,62591,579,93,63369,62740,65448,1212,336,929,65052,3390,64728,2338,65469,0
63304,64541,63262,1033,65283,64022,1847,64608,64694,357,64492,412,1917,64538,64989,141,1954,526,64321,522,62338,62078,64909,64670,197,0
65535,0,0,0,0,65535,0,0,65530,65534,65535,0,0,0,0,65527,0,0,0,0,65517,65535,0,0,0,0
65397,65354,1837,63781,1191,1078,1182,62704,6,360,1654,1330,873,62697,2246,63517,74,2096,63345,63828,65136,2153,507,63097,64806,0
64139,65407,63078,62447,64007,767,61978,8,565,5000,65064,65481,3864,3267,63494,65102,3479,2081,64854,64635,64859,3009,951,60938,63618,0
85,65237,64279,64281,1670,65461,64428,65236,64591,282,1273,1199,64897,64300,1836,1875,63379,2841,2636,2494,63998,64409,62755,65355,63743,0
65215,65250,1365,64902,1670,273,2432,1472,1392,1108,65145,803,1662,1065,62889,887,64944,64681,63587,544,65475,479,597,64375,62216,0
101,219,1232,65325,64705,642,65482,65084,414,65276,1489,2420,2271,34,65381,64769,63941,64624,65483,115,331,62766,63891,64090,65093,0
0,0,0,0,0,0,0,65535,0,0,0,0,0,0,0,0,0,65534,65529,65528,0,0,65534,0,0,0
65151,65500,399,640,1821,308,3121,2847,1972,65442,65074,2132,65042,64539,62835,63528,63655,64873,64896,2161,3012,1267,63835,2808,461,0
65319,188,63858,64102,65464,63258,64039,3263,64467,62042,1077,617,1249,63773,65107,874,64944,65113,1822,3222,1707,170,64844,2154,5377,0
64329,2596,65456,2640,64943,3701,65207,490,1435,2085,968,30,63468,235,1,64854,2437,62864,3380,63861,862,1974,2146,64487,91,0
1690,640,64268,62368,63551,2701,63516,670,1134,2709,65502,1576,2629,64051,3924,597,243,64142,62877,63292,63965,499,64052,64787,64802,0
63350,63578,63617,64945,63387,64933,62258,64803,1600,1172,63843,695,2011,580,1270,65010,190,65471,65066,62370,636,1452,64651,44,63523,0
65535,0,65534,65534,65533,0,0,65535,65535,1,0,0,0,0,65533,0,0,0,0,0,0,0,0,0,0,0
64680,64100,63047,64862,2043,64036,63980,61061,64533,65250,64276,1332,2441,1503,1266,257,65300,1699,65436,1359,64802,65401,1637,1516,2245,0
0,65392,64458,3740,836,791,2560,5454,28,62493,469,1024,2311,2824,64044,64954,65222,65210,972,518,64201,65200,471,64850,63361,0
1241,62165,1930,64326,63120,63867,729,65042,63393,63776,64031,1233,64886,370,101,492,2293,62841,64387,1097,65487,1671,63260,63856,719,0
65036,63921,64773,65000,525,63599,65345,64720,65337,2791,63834,17,410,221,1156,64606,65436,864,2030,1331,65264,435,65151,1943,703,0
65493,495,65261,810,64790,64994,869,2146,64579,65454,64614,1208,64084,603,65208,64550,1400,64766,1350,58,65502,353,65306,65314,65056,0
0,0,0,1,0,0,0,0,65534,0,0,1,0,65534,0,0,65534,0,0,0,0,0,0,0,0,0
65085,63227,64584,62599,631,63905,2161,678,60371,305,318,64042,65529,141,1594,62571,1444,64697,61928,3912,65502,64227,1204,64703,1466,0
65128,1884,63135,1461,304,64136,62884,892,4894,673,64520,65253,1990,4242,64928,64913,2195,62583,62099,61473,64861,62386,64439,63117,65035,0
65284,63715,5144,43,2416,235,1609,64790,65005,64392,1476,64908,63744,63529,63904,65042,64431,764,62662,2600,61485,65149,307,63987,1591,0
64955,64341,368,64797,202,63699,63446,1830,64946,63385,62819,2142,1165,65138,64789,3880,64894,689,64032,65254,2664,3284,1225,36,64916,0
563,63537,3159,1148,63665,58,64836,65042,64907,62204,63190,63948,63,4393,63107,146,65077,135,2889,74,65519,64861,733,1313,64513,0
0,0,0,0,0,0,0,65529,65535,65533,0,65535,65535,0,65535,0,0,0,2,65535,0,0,0,0,0,0
65312,65157,64147,1120,64835,63036,3262,64164,61229,1345,63947,529,61578,61680,64933,63354,2331,61177,1760,4438,631,65425,61991,1062,3269,0
245,63380,62377,1105,1842,64051,63349,1920,752,901,64513,1236,169,61450,62734,64965,175,64289,62052,57349,2284,63563,63488,63525,63695,0
65397,902,64078,64369,62886,38,1300,64754,65410,65107,63695,65524,2159,45,378,2252,61278,1539,936,64339,65014,65072,670,3001,64969,0
65440,342,1271,2664,2951,472,295,60,180,489,65274,819,683,65264,63595,1194,697,64045,922,54,62960,568,65202,62788,64595,0
65492,587,634,65312,64520,510,361,804,1229,800,1019,1276,122,545,63811,64104,1301,1073,65306,65289,63440,63526,1514,64439,765,0
0,0,0,0,0,0,0,0,0,0,65535,0,0,0,0,65530,0,0,0,0,65533,0,0,0,0,0
65499,695,1003,65365,2925,64484,746,2334,63615,2754,12,387,63868,65021,805,2351,63475,1531,1007,64171,62618,61152,65168,150,70,0
65099,300,64078,1642,64536,65488,62998,64552,191,63496,3394,63141,292,2277,839,6650,64623,498,1734,2284,2245,63431,62856,65391,64210,0
64693,64963,398,1303,64787,1719,65004,61105,63766,832,2117,2785,1179,2890,6014,2636,1878,392,688,981,1874,64106,26,1211,55,0
64666,65258,62826,63315,1001,64608,62329,62673,63708,61982,65339,1308,407,65447,2207,65383,65414,557,869,976,303,64361,65511,65260,64916,0
65009,698,2216,1005,627,98,2454,63862,65237,64670,478,64246,65057,90,112,1038,1153,357,65454,64641,148,76,1422,65471,64824,0
0,0,65533,65533,0,0,65534,7,65535,1,0,0,0,0,0,0,0,0,0,0,0,0,0,0,0,0
607,64849,62296,65150,190,65229,63838,63470,170,64093,64403,2306,63196,871,1582,64432,969,64893,56,1455,1236,546,64694,1268,63614,0
65131,1128,65302,65052,64278,63139,3710,2313,65209,325,62937,1610,1433,64401,64163,1245,65185,64410,62480,63450,64650,889,64197,64046,2309,0
63021,64379,324,65243,60898,188,986,65051,64108,64367,63520,65422,356,65393,406,1720,317,762,64245,64180,1913,64759,65347,1360,1656,0
64552,810,1610,1359,2924,937,118,63080,1359,2831,1070,65405,418,367,63229,433,197,63622,720,64636,63036,64287,21,177,538,0
2194,1709,2562,1177,63157,1190,63072,64922,1244,178,65262,2814,64544,62020,64826,63833,1493,2804,64930,639,801,62907,1101,639,64888,0
65535,0,0,65535,65535,65533,0,65535,65535,0,65535,0,65535,0,0,0,0,0,0,0,0,0,0,0,0,0
1218,674,63982,62560,65010,63068,71,62316,62619,65323,953,65392,65379,272,63060,1114,1312,1523,1069,455,64874,514,789,63332,64407,0
3457,65051,64933,64007,2053,254,64375,64614,63789,63751,65376,64487,659,2198,65133,60633,1089,64964,277,40,64873,63618,64630,64148,64019,0
62672,2069,64995,2495,63594,64185,1446,64245,2269,64504,507,713,65450,64895,1542,63443,63729,1544,5262,2257,3744,3637,64595,1613,121,0
64574,992,502,64288,65306,61804,774,65141,154,64696,225,65076,65386,721,1489,65103,276,63418,1019,65433,52,64420,1534,64485,65457,0
151,2781,62365,1239,1327,321,669,466,679,787,63884,1878,25,228,63343,64097,65106,1757,1518,65379,404,951,62682,64536,61358,0
0,0,0,0,0,65534,0,0,65535,0,0,0,0,65531,65533,0,0,65534,65535,65535,0,65535,65534,65533,65533,0
4155,766,61,2644,65354,64686,64575,689,1086,65099,2869,1581,5497,65444,64186,63709,1546,2565,1466,63974,62877,1297,167,3742,4814,0
64479,1130,167,679,171,80,63965,63185,685,2984,63252,64982,65386,64261,3938,618,63158,1733,65380,119,811,65223,1349,3659,63363,0
64812,64868,65082,82,64268,62534,63967,2257,64484,63437,2006,3961,2042,64546,479,873,64962,62474,63783,1797,2165,65073,64920,1618,65197,3916
353,884,1635,2320,596,1452,65298,61789,65305,2627,61007,62649,64394,661,2824,65038,706,64003,3486,65413,64001,65372,64939,1022,584,2381
487,30,168,239,65394,1108,900,2209,274,65486,65250,16,64251,63937,64102,313,64047,64377,64470,64457,923,669,65349,65319,65009,1401
0,0,0,0,0,0,0,0,0,0,65534,0,65534,65535,65530,65531,0,65527,0,0,0,0,0,0,0,65292
65519,180,2469,1575,547,2496,64222,184,65055,442,62848,60689,64661,512,536,938,2049,1841,1859,63826,65431,63919,64190,65139,65482,4813
63997,64961,302,126,64949,64861,64357,63822,62029,63908,530,366,1334,65379,2613,4757,65119,3119,2691,1313,1920,64688,521,64985,65120,1370
356,2019,62269,62720,63194,1063,804,2932,64909,65453,1868,310,64364,501,2553,979,1431,61828,65017,1327,65444,63502,62427,62577,1631,0
65163,177,64631,64052,64615,64958,64728,65144,63996,83,64286,64337,65131,64204,64847,64731,64449,64531,64971,65300,607,65192,64346,63636,217,0
63905,63446,906,862,65037,66,62675,63840,65383,64590,2340,2886,64628,374,64767,185,824,2061,65264,520,339,63410,64554,65497,179,0
712,1709,64715,1958,63862,64109,3812,1005,65436,62283,1832,65168,3867,1740,62896,4543,1225,1714,65513,63884,3695,272,65377,2644,64309,0
0,65534,0,0,0,0,65531,0,65530,0,0,0,65535,0,0,0,0,0,0,0,0,0,0,0,0,0
65523,2,65525,13,65451,65452,0,65514,50,1,65477,0,65533,65534,0,65365,2,65531,21,65535,65517,65528,0,11,0,0
65516,63872,1812,1161,3683,65479,1002,316,213,2555,64760,1945,1300,64639,62520,1158,395,62367,61754,64562,65479,1591,65328,1693,63442,0
201,64478,65294,539,759,65454,65267,65241,65025,65225,80,475,65074,65118,65233,406,151,64525,64520,65468,28,569,63474,64460,42,0
836,3119,61081,142,1224,3860,1907,63650,64628,64334,1565,64241,2393,1898,1609,2831,1708,60376,2214,1791,845,64421,1168,2064,402,0
63963,1420,65454,65148,898,64736,1316,1591,62179,63420,1644,1388,453,64723,1373,63222,62387,64281,64942,65030,1345,1140,832,64182,64897,0
65535,0,0,65535,0,0,0,0,0,65535,0,0,65533,0,0,65531,0,65531,65532,65535,65533,65535,65534,0,0,0
0,65535,65535,0,0,0,0,0,65529,65531,0,65534,4,39,140,0,65516,65499,65525,65527,65513,65535,65535,65534,0,0
226,569,589,1398,335,2527,63726,65374,1459,65406,64617,62139,906,64227,1701,677,400,2341,2129,1768,65435,4538,362,64922,65175,0
29,64688,65382,724,953,388,65133,473,65506,65238,1114,64693,64623,65040,359,64869,64362,64778,65140,3,64588,65200,65367,65268,65535,0
663,138,64697,65486,650,64941,64198,64979,62384,64871,565,63859,63207,207,63829,64830,63529,3795,760,1355,64519,65227,65439,3011,64311,0
64674,65080,3874,64617,64064,206,1482,63042,64852,2755,60770,63843,3726,3661,64675,65165,816,3474,622,65083,65509,63097,63487,64069,65199,0
65534,0,0,0,0,65535,0,0,0,0,0,65528,65532,65535,0,0,0,0,0,0,0,0,0,0,0,0
65525,65469,65508,65514,65535,65508,65392,65378,65505,5,65442,44,65407,65329,65532,65497,2,3,65490,0,65529,65530,0,0,0,0
64250,64691,2705,64311,61698,65158,1288,351,65459,61623,61946,64733,63509,64873,82,1490,623,639,1478,4567,65479,68,361,64206,65454,0
65327,442,64340,63928,64130,64742,64367,64370,65329,64155,65213,65120,64103,382,64890,1855,65488,32,64130,65300,868,65221,64184,64491,65511,0
64605,64330,64211,63085,63576,65300,676,64052,63167,667,424,64378,336,64277,64612,1196,62787,750,373,1067,64356,462,65304,1484,64852,0
2045,64888,65377,64436,1800,177,24,1675,63191,5392,160,1242,64511,36,141,63842,61717,65313,62226,64570,3623,962,63919,64643,65384,0
0,65520,65531,0,65535,65535,65519,0,65533,65531,0,0,65533,0,0,0,0,65533,0,0,0,0,0,0,0,0
65530,46,65510,36,65507,65439,116,65520,65500,65490,65428,23,65513,65526,4,65494,3,65527,65518,65529,42,65530,0,0,0,0
1377,63643,62644,2850,2565,70,60036,63404,3126,1682,178,62898,65534,64214,62255,64545,3193,852,65136,61458,3590,1112,64150,1064,62164,0
160,65325,64240,332,1353,65428,64988,63355,77,1780,64802,64253,64586,64571,62147,65069,1212,1456,64574,64097,332,219,64319,104,65397,0
65463,733,64401,63663,65278,388,65158,848,65404,62404,158,64316,64889,63692,64187,65514,256,65339,1261,777,65406,1488,237,439,1905,0
65164,266,64060,65411,59389,1137,2461,62135,63748,62140,523,63476,3483,1464,292,351,213,1016,2620,248,63956,507,64722,61302,64378,0
0,0,65533,65482,65535,0,0,0,65533,65534,0,0,65531,65519,65528,0,0,0,0,0,0,0,0,0,0,0
24,65533,65535,65435,0,16,65535,65173,65354,11,0,65530,65445,65442,65456,65534,65485,65449,41,65509,65529,65516,65527,0,65523,0
64845,2154,3719,175,64895,64456,62593,1916,61763,64696,907,1221,62003,63621,492,3462,64945,60148,61660,47,3537,65229,61389,64289,568,0
64597,64977,584,64726,65115,64344,102,65310,65005,64524,63665,64761,305,64573,64330,65326,64519,63764,63577,15,1594,64025,64910,116,41,0
64689,65005,65007,340,65244,65432,138,64642,31,65014,1480,145,65219,65397,65313,520,65040,2301,297,210,65503,64272,204,1693,239,0
63954,62509,1856,62615,2781,64615,63708,2029,55,1178,63939,62832,271,2444,165,4979,63553,64962,64540,63144,64151,64386,62425,553,17,0
0,0,65524,0,0,0,65534,0,0,0,65535,65528,0,1,0,0,65530,0,1,0,65535,0,0,0,0,0
3,0,65535,65503,0,65418,242,89,65523,0,65372,94,23,5,0,65518,65300,65505,9,0,65507,65461,65485,6,0,0
65520,781,64772,61810,236,64651,1258,1458,61490,64680,63714,813,65260,64502,3511,1394,1221,1008,65436,301,2137,299,64437,60211,64869,0
65476,491,484,65369,64616,154,1826,64635,64424,65355,204,166,64802,64995,5,64871,65029,65094,64703,65111,65180,64108,63731,571,64787,0
595,51,845,1409,63988,64782,65152,296,214,64716,374,65194,2014,65506,64982,65467,65182,64460,63843,789,662,65469,63650,65329,720,0
65067,3109,64288,65234,65083,1346,2220,63429,686,7161,3590,1741,65062,65064,64334,1192,64244,64958,64763,64560,1621,63498,63306,62337,64242,0
0,65533,0,0,0,65533,0,0,65533,65532,0,0,0,0,0,65515,0,0,0,0,65527,0,65526,0,0,0
65527,65514,65489,65534,65494,65505,65507,65525,65526,65501,65507,65518,65513,11,0,65514,0,0,65514,65535,65481,65436,65444,33,0,0
65347,65188,65386,2277,111,65516,2664,2351,1321,62831,96,1815,2998,64965,63543,65513,888,60521,63494,65424,3338,64689,60638,2502,65300,0
22,65433,65367,193,33,8,65435,566,65236,63850,65375,212,470,65413,64608,60,64479,64838,65288,79,566,64868,64841,2919,541,0
65520,65397,65493,64792,64994,64992,64722,922,816,64880,291,65187,64828,65307,438,64409,65384,65397,65521,62918,64753,919,64682,64729,1332,0
65079,65215,65146,3059,336,65370,64085,3836,1119,752,63474,372,64871,64226,4531,65418,2493,65382,1420,5133,63862,1010,64603,40,1508,0
0,0,0,65535,0,0,0,0,0,0,0,0,0,0,65515,0,65520,65531,65532,65527,0,0,65535,0,65534,0
