memory_initialization_radix=10;
memory_initialization_vector=
204,252,4,12,213,239,30,69,31,251,6,47,31,49,8,6,32,60,25,254,218,235,251,227,201,14,22,220,202,223,15,4,211,219,238,3,216,233,215,24,33,17,23,26,23,14,48,37,36,31,33,26,1,49,20,233,220,206,19,42,211,233,201,244,41,221,231,203,250,255,239,235,6,17,24,250,241,226,250,239,26,23,16,240,226,8,38,251,224,219,11,13,5,209,244,18,230,200,222,15,224,206,239,255,232,251,217,233,232,227,185,240,6,249,216,1,23,19,26,8,14,55,43,58,57,247,244,254,228,1,241,210,240,213,228,25,20,219,234,252,50,25,237,232,222,45,44,253,234,242;
