11001100
11111100
00000100
00001100
11010101
11101111
00011110
01000101
00011111
11111011
00000110
00101111
00011111
00110001
00001000
00000110
00100000
00111100
00011001
11111110
11011010
11101011
11111011
11100011
11001001
00001110
00010110
11011100
11001010
11011111
00001111
00000100
11010011
11011011
11101110
00000011
11011000
11101001
11010111
00011000
00100001
00010001
00010111
00011010
00010111
00001110
00110000
00100101
00100100
00011111
00100001
00011010
00000001
00110001
00010100
11101001
11011100
11001110
00010011
00101010
11010011
11101001
11001001
11110100
00101001
11011101
11100111
11001011
11111010
11111111
11101111
11101011
00000110
00010001
00011000
11111010
11110001
11100010
11111010
11101111
00011010
00010111
00010000
11110000
11100010
00001000
00100110
11111011
11100000
11011011
00001011
00001101
00000101
11010001
11110100
00010010
11100110
11001000
11011110
00001111
11100000
11001110
11101111
11111111
11101000
11111011
11011001
11101001
11101000
11100011
10111001
11110000
00000110
11111001
11011000
00000001
00010111
00010011
00011010
00001000
00001110
00110111
00101011
00111010
00111001
11110111
11110100
11111110
11100100
00000001
11110001
11010010
11110000
11010101
11100100
00011001
00010100
11011011
11101010
11111100
00110010
00011001
11101101
11101000
11011110
00101101
00101100
11111101
11101010
11110010
