memory_initialization_radix=10;
memory_initialization_vector=
64721,65321,61239,64229,64484,61953,62258,63177,64302,160,64810,64339,62743,4381,867,62439,63731,3458,64023,2051,1724,1743,3281,2953,1789,61101
1428,56458,61600,54873,1965,55073,62865,58249,611,64509,57678,4047,61275,63362,65278,4501,63759,60343,60516,2318,60567,2136,61530,1821,3713,2834
644,2962,3050,61197,63212,3184,2443,597,64811,61377,2912,1458,64393,62216,65333,995,935,2494,62212,62895,77,2802,63168,60523,2738,196
59600,63818,2715,601,63335,2457,61557,61153,64003,62890,5717,3211,621,62475,63126,63199,5286,64670,62847,64789,376,2050,5904,2233,64753,1415
4204,62608,2022,1820,131,4071,61945,61735,1696,3222,65287,903,953,4139,3742,60344,62924,61113,63031,64959,64445,65070,61977,61153,1383,64270
61455,63838,64394,1098,65314,3498,63860,61206,62496,1574,4645,6623,1094,748,64820,3020,63982,60381,63540,1037,64078,63502,64791,4010,65197,63655
325,64458,64191,1666,64249,59012,448,61204,65023,62866,59666,61688,56815,62077,61129,2366,55954,59533,65226,63946,1068,60331,56857,441,64023,0
55112,60293,2220,64942,1541,60297,65205,64718,1877,64917,842,61510,63133,59770,2014,63948,4903,2318,65043,307,64105,500,64337,5789,65416,0
63350,62762,62428,61016,61688,62106,57074,61219,60463,65434,63764,965,61244,64553,178,64568,63239,61974,64453,2626,220,1201,680,1081,2395,0
179,65344,61298,332,63860,60284,59717,3315,65299,1499,62515,60258,57864,1343,5171,1343,56574,64117,65423,62478,61220,61001,4377,63287,3412,0
901,1152,65444,60929,1359,64178,62434,62606,63599,63052,1284,1249,62794,2153,58229,2815,61031,63288,5540,64191,63630,61564,144,5607,60191,0
1972,64649,62012,1074,65012,2597,410,214,57794,59061,1384,65022,62573,59269,2291,2193,64369,60574,64090,2856,64402,62028,64227,62117,65430,0
63749,2954,58171,59975,58271,3641,63520,4673,218,59247,9845,4551,4898,2218,64485,184,61138,60849,65132,65381,60054,765,3316,65297,1779,0
1721,65247,61263,1508,6230,57319,4875,2931,2268,1612,64203,60927,1505,60281,134,64914,60064,60414,60690,544,7268,60659,3598,5400,63562,0
60536,65084,63792,3636,3522,59160,64745,1157,58834,9239,60923,63568,2950,63671,63777,59664,391,3242,6703,6438,3112,1234,5799,65502,4270,0
1404,3682,64674,64164,6588,59479,1339,60398,3339,65056,61572,65371,60700,3015,614,709,61238,58071,63929,205,63818,62974,61024,2227,59676,0
627,1114,63169,64426,61552,60742,564,65004,1374,62602,632,62644,60611,61087,62012,64710,61819,7574,9122,1820,150,5573,5759,542,61516,0
62915,60219,2639,1370,358,64173,1503,63802,64835,65167,60108,1843,3727,2485,64866,64449,65353,2981,59651,62726,61961,6733,401,59420,63864,0
1808,3848,4860,146,60097,60434,2803,6177,62889,64518,64396,65091,4938,1797,62546,61364,63416,65221,1692,64140,361,58081,1994,501,63369,0
64813,3757,64460,3318,3891,61726,64213,62605,59507,61006,65174,61717,62720,63588,65196,61721,3365,58538,3159,64185,62788,63845,1649,62000,3047,0
1282,2163,64774,64964,1132,61385,63694,4619,2411,64896,4317,63349,36,64596,1295,60342,59668,63582,59264,3862,762,62013,61815,827,1297,0
3398,1701,60217,865,60328,999,3843,62602,65096,60897,6460,1842,1118,4813,61075,4646,1356,521,2606,58984,61141,1419,3913,64279,61533,0
1511,65236,375,61000,873,63298,63560,65435,62350,64368,62518,63485,3319,61968,62895,2030,55976,63545,60322,1848,63609,2884,3886,1867,63058,0
2138,65034,3470,63965,1837,63184,977,1916,62632,58209,63898,4977,3644,1865,62740,5501,1560,62581,1904,61713,5235,1647,61402,63807,65415,0
63067,61553,64033,60749,64016,3230,5122,63146,65292,60669,5148,2264,4653,1442,63580,62789,65356,63918,60928,61565,75,4874,557,2514,897,0
60942,59720,491,483,1088,65081,62340,3039,962,1501,61143,65533,3640,2882,63807,63791,4832,65193,182,64484,753,131,4544,64361,63440,0
2300,1592,5706,3080,1119,63317,64282,2733,60351,62941,2497,3809,1844,59931,64998,1081,63628,2428,65455,3608,62227,2371,583,3511,64132,0
59906,62354,62959,2139,716,64850,65430,61470,63793,1366,207,62393,64046,911,62985,597,62793,63517,5209,61800,2179,2058,59593,62253,60492,0
62633,63434,65358,2595,1758,64198,61688,1030,4389,6526,62132,64595,3445,64268,7391,63721,1861,5542,64635,64278,405,405,766,58214,60506,0
62891,60930,63574,63159,61682,63246,64692,354,63983,1391,62699,1743,60300,3695,6235,61723,59508,63888,784,7981,64235,64009,4625,4438,1079,0
1989,63015,63255,6148,63475,60860,61317,5526,64134,278,65372,64873,64093,64944,3676,4633,62945,64355,1823,784,4753,5611,58003,62660,454,0
63790,6366,4194,65339,2773,64618,64659,64382,852,63093,64066,3909,59827,65478,64266,60971,1352,64420,2897,2030,3225,62063,61823,61251,62266,0
56306,58746,63572,6451,4212,64123,64737,63322,64978,4315,1230,510,2813,1063,639,63271,64902,64715,61936,2100,64335,63045,1287,3304,972,0
59806,61467,64018,3043,81,5286,62773,59036,395,213,4092,64604,59361,1597,431,637,548,63893,63161,307,3846,60930,62095,5135,62591,0
60936,353,65239,64939,63956,2794,1153,5849,5532,65047,2256,4658,7721,2403,61945,55707,2887,4052,62190,60051,62452,449,65374,63304,60436,0
2373,62441,64829,64911,64295,59914,1152,62141,4314,3554,112,1854,61933,60424,65386,63388,63251,59906,64514,815,59504,62872,2811,56819,59106,0
2219,64938,676,65266,238,60222,64308,65136,1676,65185,329,57768,65415,4071,1075,62669,99,239,3368,2237,64528,61155,63763,1985,501,60233
4278,59496,65474,4013,245,1009,1608,63847,1742,65511,2289,60158,2367,5868,64458,2947,958,65079,687,62301,3064,64771,3871,63945,65384,61741
60179,64517,60708,64029,59997,3993,64576,3279,4253,340,64377,213,64317,60798,128,3928,63917,62125,1847,1268,64615,2722,5754,1613,63316,59886
63204,64451,64110,1512,813,60127,63466,2488,2973,1867,974,2316,5739,2664,65279,4026,1104,1530,64980,6,65316,62201,4505,62757,61068,58339
64273,64654,3818,64349,503,60404,62267,64966,4939,64049,4695,4576,62633,59161,59610,63863,61783,3698,2850,61355,65451,63902,4718,418,62218,59757
63174,3308,170,64575,64321,62444,63404,61680,901,1248,62156,413,64637,2116,1791,521,63554,1048,351,64844,64986,64921,3049,65478,65015,53673
65397,62887,61737,6001,62855,63575,61182,58151,63962,4566,608,58892,58639,64874,2151,64520,62768,53283,1382,64311,58730,80,281,7015,3643,0
1909,64350,63821,2565,1826,2814,65458,64888,1728,64003,2940,1325,2677,294,61017,1742,60617,128,63335,63014,183,58287,62493,60601,58185,0
64251,62222,321,62629,64547,5718,113,62962,848,65243,1111,61907,61444,62735,65374,64383,64196,1394,62871,646,4104,637,64246,912,4385,0
64386,882,63739,65174,63356,57226,683,65063,63893,2082,2762,62139,62961,63676,64695,6626,1733,62848,65158,5411,5501,423,61304,5650,1781,0
63529,64641,1057,1696,595,490,60454,282,59333,60890,1835,608,2808,65060,56213,62664,64286,3760,61630,58803,62626,2027,8679,60105,59589,0
56381,62957,6215,2325,3123,63869,4523,2301,60045,60279,65382,2128,761,1671,60442,63569,3068,64319,62641,58210,62857,63209,65475,65170,527,0
63581,62334,63173,1716,64221,61506,4599,63450,65244,4673,1167,1165,62219,64236,63873,4819,62885,62672,6459,65323,4125,112,64425,59161,834,0
1533,58840,59519,1100,3306,60613,2032,8108,5927,65391,2127,64361,63736,1134,62865,65389,2088,60955,60704,61850,63044,59220,63566,2169,63744,0
5703,2445,58976,61769,3221,4245,63544,63812,2480,6161,61596,65125,63174,3091,60344,63122,59115,4042,6000,64829,1928,69,7840,4285,655,0
63867,3586,60999,63015,59257,62847,62384,7419,554,62499,65338,3379,63105,59486,62767,7354,64052,65262,64359,61740,63628,60742,2800,766,60689,0
62953,5547,2588,9,5484,1379,7170,2784,64360,11674,55477,64736,3038,4900,3415,7284,1616,4434,65334,2038,62609,2713,2133,61479,61219,0
1869,60277,64746,7737,59714,61777,1027,63945,63021,61454,1238,2240,62626,65333,61906,2301,64888,62020,62049,2933,60588,8098,4211,2917,59712,0
60850,5099,2851,2801,2584,64591,64561,64668,60770,58794,62816,63041,65253,62936,3105,64692,61745,62517,5077,1294,64672,943,65340,63802,64710,0
64092,3572,63688,59726,61875,2351,63703,23,2113,65084,58593,61187,58590,63741,1211,58011,65033,64635,62637,64838,1578,664,62267,63089,62101,0
59843,61211,59296,62902,60875,1274,64606,62781,3222,298,58944,65360,63148,64809,61080,63826,1410,65174,63152,64803,63666,2070,60250,2645,2134,0
2395,64702,57465,195,3746,62321,62300,61916,1646,64502,4084,62344,60816,64990,1842,7243,64746,56352,2261,1236,4523,3383,60029,304,64158,0
64882,62825,64641,62606,198,2329,64968,43,60598,63696,1054,5353,419,58668,64359,1632,4574,3904,61513,58518,64682,1839,4425,60132,62748,0
62587,59672,4895,1456,60551,3096,2694,7159,61101,7609,2995,2009,4460,1502,1934,60068,60476,61803,61196,64642,64040,61889,57485,62754,61289,0
55279,65179,5687,5264,62064,61713,62122,4492,1963,5428,62029,63999,64313,2431,65491,63954,2125,59052,65474,61037,64646,64210,1272,63896,354,0
59814,64986,64628,1895,64388,58563,60234,65202,7579,3228,61905,386,3645,2692,3066,65356,3343,64206,4863,518,64835,5645,64481,58131,60848,0
62861,63723,64428,63956,60654,4526,462,64820,64307,63711,65507,1322,65424,704,59654,64162,3598,62295,2012,59664,64391,1449,64425,60665,61438,0
63046,61781,64845,2360,62323,4604,4648,5140,1567,63847,3991,2790,61591,59375,2263,65029,8364,987,65397,55319,60414,62512,1317,56914,63906,0
65509,65335,62672,1694,3018,63428,4111,63954,4543,6100,65488,64889,1181,63629,2609,782,63837,63967,7294,1135,60205,849,62857,64631,8110,0
59797,64401,842,56846,3993,63406,62797,5766,952,5563,57842,2673,592,2029,664,63245,1564,1331,62034,2600,2271,60637,62743,64409,2436,0
3942,62357,289,3067,1261,2428,2132,3144,59845,64317,4753,2033,63209,59793,64666,1678,62096,189,4634,63399,843,3204,439,62361,3067,0
522,1741,7181,457,61115,5152,64761,3280,3694,331,63032,2513,59730,62083,61598,1203,1948,700,2368,58699,4555,65506,64015,484,1836,0
4043,2226,64247,1433,62166,60315,64403,64325,64226,63152,61972,65453,1188,488,63993,428,5264,986,62578,560,64654,813,64100,59330,65155,0
1587,4448,64448,62957,65068,65254,64015,63937,59030,65236,61688,63884,64363,59634,1881,1543,587,59806,62906,64496,63420,6457,60650,64382,1976,0
65198,2991,679,1804,3779,60802,304,64083,64372,61552,58717,970,62326,64341,63635,398,62057,62320,62953,64414,491,61394,1652,55883,2061,0
65455,62963,59408,57603,57976,2169,2541,476,1494,56681,65220,63159,65310,59898,60262,3344,1663,2336,62258,63174,65074,65298,1974,248,499,0
65090,64285,1735,64522,1546,755,58042,13,958,64386,5817,58720,193,445,61164,1450,2019,60149,2957,3025,495,62179,62939,65045,64557,60006
2474,63310,59333,61386,62470,2696,60218,62954,1713,3441,60998,64330,4512,4571,6206,64308,65105,3804,62737,1232,61740,59239,46,65270,64457,658
3469,4957,65088,64640,1922,301,3154,2078,62126,59203,2205,5318,1963,64484,62790,1760,1296,64120,64798,2894,62863,1671,4305,1955,1446,60492
301,64418,181,61106,62813,62357,2500,65469,110,61465,61302,61310,63059,62429,5403,64804,3188,2754,62659,62423,60568,6148,61429,3286,459,61766
65140,63735,560,57515,65003,1610,2592,64794,56627,63369,5339,3995,5214,54148,62196,65513,2043,9015,64410,64549,63458,4278,2646,61240,63635,61600
4024,61225,63528,845,61961,63035,2025,1725,63812,1725,2217,2281,4959,1681,745,2160,62744,61525,4276,64500,64949,60492,61623,65180,62277,64704
62161,2261,2511,2390,3894,58388,57614,2960,5711,2436,306,61499,58021,65515,58758,3462,62518,55926,3024,2571,65394,61947,62602,64401,767,0
325,64458,64191,1666,64249,59012,448,61204,65023,62866,59666,61688,56815,62077,61129,2366,55954,59533,65226,63946,1068,60331,56857,441,64023,0
1796,3076,1050,1909,60983,3442,64274,1177,3670,3087,2639,65331,63227,59118,687,61406,6547,2284,65120,5442,2913,3008,2824,204,61883,0
65064,65262,59608,239,63443,63899,1817,3429,64216,61249,63593,3068,65071,61920,1198,62869,1344,3206,2283,63984,62252,2804,1388,3302,5016,0
654,2862,5052,1027,63264,61055,65115,65162,1054,2812,63450,65520,14631,7554,58191,1342,2913,63990,3816,60935,58365,61535,58150,57967,65137,0
63749,2954,58171,59975,58271,3641,63520,4673,218,59247,9845,4551,4898,2218,64485,184,61138,60849,65132,65381,60054,765,3316,65297,1779,0
9238,62045,1192,6416,63147,452,62263,60433,62925,61470,63309,244,61337,64590,4100,63207,64540,60103,6990,905,59930,60752,64702,3642,6241,0
63569,63505,62099,2024,3251,3395,63952,64027,2379,299,2218,9169,1680,1891,61830,3302,62593,64938,65181,64925,7169,60499,1590,63012,9135,0
3317,63182,64085,770,49731,311,79,1650,60501,58311,6613,65247,62949,473,4348,539,63503,57358,61465,4447,1070,61730,908,63750,63520,0
1808,3848,4860,146,60097,60434,2803,6177,62889,64518,64396,65091,4938,1797,62546,61364,63416,65221,1692,64140,361,58081,1994,501,63369,0
1219,65308,63785,64322,579,62219,61697,63118,1518,4650,59662,59417,63262,1742,739,59500,59701,58338,1334,2887,62987,60380,61948,63965,1859,0
64985,61063,6660,60962,60555,62538,63988,5555,3766,3138,58407,139,366,57946,2674,63351,65107,467,841,1180,59915,60582,64022,61266,62281,0
65349,63230,59555,4310,64517,64241,62440,60678,59084,52620,64093,686,63829,54773,58614,60446,357,4455,1301,49142,64452,2246,9649,62177,61600,0
63067,61553,64033,60749,64016,3230,5122,63146,65292,60669,5148,2264,4653,1442,63580,62789,65356,63918,60928,61565,75,4874,557,2514,897,0
64768,63581,64480,65151,1293,65236,1193,779,62706,1170,64641,63392,61360,63695,2575,61187,61577,58261,716,60406,1431,65184,61440,5547,4130,0
63919,759,130,60123,62203,64895,17,61915,64982,1160,6029,690,64364,63115,1160,60,64493,2026,2069,3361,5636,3347,61064,943,63814,0
3620,58683,2044,6133,64936,57691,2373,5415,63283,59932,58735,62206,8919,577,57883,59114,64997,2481,1353,65158,1467,59779,64880,3399,63872,0
1989,63015,63255,6148,63475,60860,61317,5526,64134,278,65372,64873,64093,64944,3676,4633,62945,64355,1823,784,4753,5611,58003,62660,454,0
232,64511,63874,658,61762,60845,58745,619,65340,3826,1411,65198,63891,2407,64940,63154,62565,65137,62625,694,64154,62839,771,3664,2509,0
3073,5813,60597,2584,61737,59582,58761,64491,1868,59914,1319,62555,778,2522,64697,3301,1216,4961,4005,64379,57766,1113,61144,60,63428,0
60201,176,63504,1099,182,59767,63261,59865,65198,65116,5900,1735,63735,52170,63515,2644,601,8097,3355,64670,56689,3091,9542,64555,63374,57043
2219,64938,676,65266,238,60222,64308,65136,1676,65185,329,57768,65415,4071,1075,62669,99,239,3368,2237,64528,61155,63763,1985,501,62035
2438,1172,62005,64379,63059,65063,1082,1788,4700,501,64263,938,4230,137,64736,59078,638,3041,62653,2019,1481,65346,64581,64651,64074,1616
61662,338,65412,65320,64096,60228,62467,2874,64533,62538,63326,60341,64237,65197,4445,3668,1176,60670,3618,643,65470,61968,64053,59203,5138,60416;
